000D
FFFC
0011
0027
FFFA
FFFA
0028
0014
FFF4
000E
FFF4
FFF4
0006
FFCF
FFD4
FFF2
FFE6
0008
FFE9
FFDC
0026
FFFA
0002
FFDC
FFF2
0003
FFE3
000A
FFF1
FFF9
FFF1
002F
0000
FFE5
0015
FFE1
0005
FFCE
FFDE
0005
0013
0004
FFFD
FFF8
FFDA
FFEE
FFF4
001B
0009
FFD3
0008
FFF6
FFEF
0010
001A
0018
FFEB
FFF8
0008
0019
FFF4
FFFB
FFE4
FFE1
0015
0023
FFFE
001A
0009
FFEF
0009
0027
FFFF
0028
FFBD
0015
0002
FFF8
0002
FFCD
FFFA
0009
0026
FFF3
FFEB
FFF3
0017
0008
FFF2
000D
0002
0019
FFEE
FFF8
FFF6
FFDB
0008
0007
0000
FFFA
FFDC
FFF5
FFF7
FFEB
FFFC
000A
0030
0004
0007
FFFE
FFCF
FFFF
0002
003F
FFFB
0008
FFFF
FFE2
001D
0013
0014
FFE9
0024
FFDC
000F
0038
FFE7
FFF2
0003
FFF3
FFD8
0002
FFE5
000C
FFE8
0028
FFEC
FFF8
0015
FFE0
0006
0021
FFD7
0005
0007
0014
FFE0
FFDE
000D
0008
0006
0009
FFEF
0006
0008
FFEE
0030
000C
FFE2
0011
FFE7
0014
001E
FFEB
0019
000B
0015
0031
FFFA
FFED
FFE9
FFEB
FFFE
0009
0007
0015
0000
0025
FFF9
0046
0010
FFEA
FFE5
000C
FFFA
0012
000C
FFFE
FFEA
FFD9
FFF5
0016
0005
FFE0
0004
000A
FFE9
0004
0001
FFE3
0009
000E
001C
001B
FFDD
FFE8
000D
000D
000D
0063
000F
001D
0018
0011
FFF8
0013
FFEC
FFFA
FFF4
0002
003B
FFD0
0012
FFD7
FFF4
001C
0002
FFE4
FFEE
0011
FFED
0006
0001
FFEF
0037
0010
FFCC
0005
FFEF
0016
FFEC
FFFD
000D
0016
FFE1
FFF7
FFF4
FFEF
002D
000A
FFE0
0017
0036
001A
FFD9
FFF4
0020
FFEE
000B
0014
FFE8
FFFE
FFAD
FFE6
FFFA
FFE0
002A
FFDB
FFF5
0003
0025
FFDB
001E
0000
FFE7
000C
0005
FFF1
0002
FFF6
0003
0011
0029
FFE0
0037
FFCE
FFFC
000F
0007
FFF0
FFFB
FFF3
FFF1
0016
0009
FFEE
0017
0008
0015
0010
FFEB
FFF2
0013
0010
FFFF
0003
0021
FFF1
000E
FFFB
FFFA
001C
0015
0015
0021
0001
0011
FFF8
0008
FFFD
0002
000F
FFEB
0036
FFE6
FFE1
001E
0014
0010
0010
0000
FFE9
0002
FFEF
0019
FFFC
FFEB
FFF8
000B
FFF2
FFEB
0006
0006
FFF3
FFF4
0006
FFDB
FFDC
FFEE
FFFB
0008
0026
0016
FFFC
0000
FFE6
0000
FFF9
0008
FFEB
000D
0027
FFFD
000A
0012
FFF6
0006
0000
0003
FFEC
0001
000D
0025
0019
0037
FFEC
0016
0005
0038
FFEB
FFEB
FFF1
FFCA
FFF3
FFED
0004
0009
0030
0018
FFF1
FFE9
000D
FFDE
002F
001E
FFF4
FFD4
0023
FFFD
0020
FFD7
FFF1
0000
0001
FFF4
0010
FFE5
FFFC
0003
000D
0012
FFE3
FFD9
0021
0009
FFED
0028
0003
001E
0002
0035
002D
FFFA
0019
0011
0023
FFE7
0012
001B
FFD3
FFE2
FFCC
