001C
000B
FFEB
FFFB
0015
0024
FFF1
FFEA
FFE7
FFE2
FFFF
FFD6
0006
FFE8
0010
FFD0
0019
0019
FFFF
0032
000C
0005
001D
FFF7
000E
0000
0016
FFF4
0010
FFE4
FFDC
0022
FFEA
FFF5
FFDC
FFE8
FFF6
0025
FFD7
FFE9
FFFB
FFF6
FFFE
FFEF
0020
FFE8
000E
000A
0008
FFFE
FFFF
FFE9
FFEC
0000
FFEA
FFD7
FFFC
000F
0021
0011
0006
002F
0015
0004
FFEB
003B
0032
FFDD
FFEE
FFFF
001F
000F
FFD9
0027
0019
0000
0019
0027
0007
FFE7
FFF6
0009
FFFB
001C
FFF1
0001
FFF4
FFDF
FFE2
0012
FFE9
FFE5
FFFD
FFDE
001E
FFE8
0027
FFED
FFD7
0006
FFE8
FFF0
FFFB
000E
0007
FFF5
001D
0003
0000
0009
FFEE
000C
0018
0023
FFE0
0007
FFDD
0013
FFE8
0027
FFF5
000D
FFE2
FFDE
0013
FF8F
FFFD
FFDC
FFE3
FFF3
FFD3
0017
FFC1
FFEB
FFD2
0028
FFEF
000C
FFDE
0021
FFF9
0021
FFF7
001F
0003
FFFC
0029
FFF6
FFF9
0020
FFFE
001C
FFCE
0007
FFF1
0033
0003
003C
000E
FFFE
0030
FFFD
000B
FFF6
001E
FFF8
FFEB
FFFA
FFE2
FFDE
FFDF
FFFC
0030
FFE4
FFF8
FFF5
0005
0011
003A
0015
FFE9
FFF6
FFEA
000F
FFE6
000D
FFEE
FFDD
0000
0021
FFF0
001B
000E
FFF6
0013
0001
002A
FFCE
FFE5
FFFE
FFCE
FFEE
FFE0
FFFD
0011
FFEF
0032
0022
0036
FFF0
FFDC
0014
FFF6
002D
0007
FFF8
0007
FFE8
0001
002F
FFCC
FFF2
FFE4
0004
FFE6
FFEF
FFFA
0008
000C
0015
FFEA
FFFA
0019
0005
002D
FFF5
FFCC
0008
0007
FFF6
004F
FFEE
FFF0
001F
FFF2
FFEF
FFFC
FFEF
0000
0014
FFD0
0000
FFED
FFD1
FFF8
003C
0006
FFF3
0011
FFF8
0007
0016
FFF0
000A
FFDA
000F
003D
FFEB
0025
000E
FFD5
001F
FFFF
000F
FFDE
FFF3
FFE8
0007
002F
FFE8
0018
0016
FFFE
FFEB
0002
FFE6
FFE6
FFE0
001F
0005
0014
0005
FFE9
FFF4
FFF4
0004
001B
FFCF
FFF1
0025
FFC9
FFEE
FFE0
FFE9
FFC5
FFFE
FFFB
000F
FFD4
0003
FFEC
FFF4
FFD6
FFC7
FFF8
FFEE
0011
FFED
FFE0
0013
FFFF
FFD0
FFF8
002B
0030
FFEB
FFF6
FFDF
0010
FFCD
0018
FFDB
000F
0018
FFFA
FFF6
FFEE
FFE7
FFFA
000C
FFDA
FFD3
0012
FFF8
003A
FFFA
FFF5
0033
000C
001B
FFFB
0011
0050
FFF0
0015
FFF4
FFCC
0010
FFDD
0018
FFFF
FFF8
0009
FFF9
FFEB
0002
FFE6
FFFD
FFF0
0020
0007
0027
0016
0056
FFC1
FFE8
0025
0006
001B
FFFD
0006
000C
000E
FFDA
0001
FFFA
FFFA
FFF2
FFD4
FFFD
FFF9
FFFE
FFFE
0004
0020
FFEB
001F
FFD8
FFF9
0009
FFF7
FFD3
FFF8
001E
FFDD
FFFF
0014
FFF5
FFF7
FFF0
FFEF
0002
FFFA
FFED
002B
FFF5
0018
0028
FFF9
0017
FFF3
FFEC
FFD9
0003
FFEA
FFCF
FFE5
FFE9
0013
FFEE
FFFA
0004
