0006
0015
0002
FFFE
0016
0007
0011
000C
001B
0000
FFF5
0014
0015
0003
000D
FFF7
000F
0003
0009
FFF4
0007
0010
000C
0020
0019
000D
FFF6
0014
0008
FFF7
0002
000C
0014
000D
0010
0002
0006
FFE7
000D
FFDD
0004
FFE9
0007
FFF1
0004
FFE7
0020
0002
FFF9
0012
FFE9
FFE7
0015
FFEB
0017
FFF3
FFF4
000A
FFED
000C
0000
FFF8
FFE3
000A
001F
FFEE
FFF4
000B
0014
0007
0007
0010
FFF5
FFFF
0007
001A
0005
0004
0008
FFF6
FFED
000D
000A
FFEA
000D
0012
FFE7
0012
FFED
FFFB
0008
0007
FFF4
000E
FFE6
0010
FFEE
0024
001C
FFFD
FFEC
000F
0006
000E
FFE3
0004
FFEF
FFF8
000D
0008
0002
0002
FFDB
FFFF
FFE0
0006
FFF6
0012
0013
FFE2
FFC9
FFF4
0011
000D
FFD9
001B
0013
001F
FFF9
001E
FFEB
FFF6
FFF5
FFED
FFF6
0015
FFFB
FFEE
000C
0008
0006
FFE8
FFF7
FFF4
0011
FFFA
0007
FFFF
FFEF
FFF4
0003
0011
FFEC
0008
FFFB
FFFB
001B
0010
FFFE
0024
0006
FFFB
0009
000C
FFF2
FFE7
000C
FFF9
FFFE
FFE2
FFF7
FFFF
FFF1
FFF1
0001
FFE3
FFFD
0010
000C
0001
002D
0008
FFFC
FFFA
FFEC
FFF9
0022
0001
0015
FFE2
0014
FFE9
FFF2
FFF4
0009
FFFA
000B
0000
0002
FFFB
FFFA
0011
0006
FFF3
FFEC
001B
FFFC
0006
FFDB
0013
0009
000F
FFEA
FFF2
FFF1
000D
001B
FFF8
FFE2
FFF6
FFF2
001A
FFF8
0005
FFE0
0008
000B
0014
000B
FFEA
FFF7
FFF2
FFE6
0001
0000
0002
001F
0013
0009
FFF4
0004
FFFD
FFF9
FFFD
0006
FFFA
000C
FFF3
FFF6
000F
0002
0017
FFF4
FFFE
FFF9
0002
FFF9
000A
FFED
0003
0004
FFDA
FFED
0005
FFF6
FFEE
0007
FFFA
0009
FFF6
0006
000B
FFED
FFE4
0016
FFFF
0000
FFF6
FFF8
0000
0013
FFF3
FFF8
000B
0010
0027
000A
0008
FFF8
0007
0008
0006
FFE3
FFEA
0003
0003
0007
0009
0005
FFED
0002
FFFC
0009
FFF1
001E
000F
FFF8
0001
001F
FFCE
000F
FFEF
FFE7
FFE6
000B
001F
0012
FFF4
0009
FFFE
FFEC
0017
FFEC
0022
FFF9
FFCE
0012
FFEA
0013
FFC9
FFE1
FFE7
FFF7
FFEA
0018
0006
0001
0008
FFFE
FFEE
FFF8
0023
FFD0
FFED
FFFE
0029
0004
FFFA
0010
FFE2
0006
0005
0028
FFEC
FFFE
FFFB
0000
FFE9
FFE5
FFFA
FFF1
FFFD
0018
FFDB
001D
FFEA
0019
FFF6
FFF4
FFF4
0005
FFF4
0005
FFF8
FFFE
0001
FFEA
0004
FFF8
0004
000C
0009
FFF5
000D
FFFD
FFF0
FFF8
0002
0018
0003
000C
000C
0008
0013
0006
FFDF
FFE7
0012
FFF2
0001
0017
FFE1
000F
0008
000B
FFED
FFEA
000E
0007
000C
001B
FFEA
FFFA
0003
0005
FFE9
FFE6
000D
000F
0001
0006
0015
FFEA
0017
0017
FFF8
FFFF
FFF3
0005
FFF0
FFEF
FFD0
000B
FFF8
FFF1
000A
0007
0016
FFF3
0009
000B
0003
FFFA
FFEF
FFFB
FFF7
FFFD
FFFB
FFFC
FFE0
0004
FFF7
FFF2
FFFB
FFF9
0008
001C
0007
0009
0004
FFF5
FFE7
001E
FFF4
0000
0007
FFE7
0004
FFEF
0002
FFFA
FFFC
000C
0008
FFFB
0003
FFFB
FFF8
0016
0009
000B
FFE9
FFF7
0004
FFF9
0006
0000
0015
FFED
0000
0010
0007
FFF2
000C
0008
000D
0013
000B
FFF6
0000
000F
FFF7
FFF4
FFF1
0016
0015
0003
0011
FFEF
FFFB
000D
FFFF
FFEF
000E
FFE4
0004
FFF3
0018
FFEE
0009
0018
FFF3
000B
0007
FFF1
0001
0006
FFFA
FFFB
FFFB
FFF9
FFFB
0011
0005
0029
FFF9
FFF0
FFF2
0006
FFE9
FFE3
0011
FFEE
0029
000A
FFFE
000B
FFEA
0006
FFF6
FFF0
FFF8
0019
000B
FFFE
FFED
FFF1
0005
0002
0003
0025
0004
FFEC
FFFD
FFDB
FFF9
FFFE
0012
FFFF
FFF2
001D
0003
0036
0004
FFF9
FFF3
001E
FFF2
000E
FFF2
0007
FFF4
000D
FFF8
FFDD
FFFB
000D
0003
0009
FFF0
FFFF
0002
FFF9
0012
0009
FFFC
0001
000E
001E
FFF6
000B
000B
0024
FFFB
FFF4
000D
FFEC
0025
0002
0023
0001
FFF6
0005
0001
0006
0011
FFF1
000A
0006
FFF5
0023
000F
000F
FFEA
001B
FFF4
FFEB
0002
FFF1
0004
FFEB
FFFD
FFE9
FFF0
0008
000A
0008
0014
FFDF
FFF1
000E
0023
002A
FFEA
000E
FFFF
000C
001F
000F
000D
FFE6
FFF0
0010
0003
FFF8
0019
0009
FFEB
FFFA
0009
0004
0004
000A
0004
0001
0006
FFDC
FFDF
000C
FFF2
000D
0000
FFF0
000C
0004
000A
FFFB
FFEA
0013
000F
FFEA
FFFD
000F
FFF9
0012
0019
FFF5
FFF3
0017
000E
0005
0008
0002
FFF0
FFF8
FFF6
FFF3
FFF9
000C
0016
000C
FFE3
0017
FFEA
0006
0005
FFF5
FFF0
0011
FFFE
FFE6
0013
0001
0008
FFE4
FFFC
FFF8
FFF4
0008
0018
0000
FFF7
FFD9
FFD6
FFF8
FFFE
000E
0002
000C
0003
0004
FFEE
FFF0
FFF4
FFDE
0000
FFE9
0011
FFEA
0009
0002
FFF4
FFF1
FFF1
0005
000F
FFFF
FFEC
FFF0
FFEF
001F
0027
0001
000C
FFF3
0005
FFEC
0005
0015
FFF6
FFF5
FFF2
FFE0
FFF2
FFD7
FFFB
000F
0006
FFF4
FFFC
0025
FFF5
0018
FFD3
FFE5
000D
FFF2
FFE5
000C
FFFD
000D
0002
FFF7
0004
FFCB
FFF5
FFF4
0013
FFF6
0008
0012
FFED
FFFF
FFEF
0008
0001
0007
0004
FFF3
000B
000E
000F
FFFF
FFED
FFF0
0001
0008
FFE2
0006
0000
FFE4
FFFB
0007
0006
0001
FFFE
0019
000A
0007
001D
000F
0014
FFFD
0003
FFF6
000B
0019
001B
FFE1
FFEB
000F
FFFC
000A
001B
FFEC
0021
0005
0006
0004
FFE9
000C
0010
0009
0008
FFE9
FFF5
FFF5
0000
0010
FFF6
0021
FFE6
FFFB
FFF5
000E
000B
0001
0007
0002
0024
0010
0008
FFF3
FFF3
FFDF
001E
000D
0009
0008
FFF9
000D
FFF3
0001
FFFF
FFEC
FFE4
FFF6
000C
FFE4
FFFD
000F
0000
FFF8
FFFA
0008
FFF7
0002
FFF0
FFF6
001C
FFFC
FFFB
FFF6
0003
0003
FFD8
FFE9
0007
0017
001E
0005
000E
FFEC
000A
FFFC
0001
FFED
001F
FFFE
0009
FFF3
000E
FFE9
001B
FFFC
FFE8
FFF8
0008
FFFD
FFF6
FFF1
FFF3
0009
FFFE
0000
FFFD
FFE6
FFFE
FFEB
0006
FFF2
002E
000E
FFFA
0003
0001
FFF0
FFF8
0007
0015
FFFE
FFDE
FFF0
0013
FFFF
FFE7
FFF7
0014
0029
FFE4
001D
0004
0005
FFE5
0014
0000
FFF5
0005
0003
000E
FFE6
0004
0005
FFF8
FFF9
FFFF
FFFA
FFFA
0013
001C
FFFB
0014
FFED
FFE6
0003
0005
001A
001A
FFFC
0000
FFF9
0000
FFF6
FFFE
FFEB
0007
0027
FFE9
0021
FFEC
000B
0012
0000
0017
0008
FFE9
0019
FFE3
0003
FFE6
0002
000F
FFE7
0008
FFF7
FFF9
0002
0003
0009
FFF5
0004
0006
0007
0006
FFF4
FFDE
0025
FFF8
FFFE
FFE2
0014
0003
0009
000D
0027
0010
FFE6
0004
0008
000F
0000
0001
FFF2
0008
FFFF
001A
FFF9
FFFB
0008
FFE8
FFED
FFFE
FFF3
001C
0016
0013
000F
FFF8
0007
FFFF
FFFC
0009
0020
FFEE
0012
FFE9
0021
000D
FFF6
000C
FFF7
0011
0027
000C
000F
FFEF
0007
FFE9
0003
FFF2
001C
0007
FFF4
0007
FFFD
FFFC
0001
FFE2
FFEC
FFF5
000E
FFE3
0027
FFFA
FFF8
FFF4
000A
FFFD
000B
FFEF
0001
000B
FFDF
0010
0010
000B
002B
0000
FFF8
0002
000E
000E
FFEB
FFEF
000A
FFE4
0013
FFEB
FFE5
FFE2
FFFA
FFEC
000D
FFF6
FFE8
0016
002F
FFF7
FFEE
FFFF
FFF0
0000
FFFF
FFE9
FFEB
FFF0
FFE3
FFFF
000B
FFE6
FFF2
0005
FFF7
FFCB
FFF8
FFFF
0019
FFF0
FFF0
0012
FFF3
0014
FFF6
001C
FFD4
FFEC
000A
FFFB
001E
001B
000C
FFF2
0005
0031
FFD1
FFFF
FFFE
FFF4
0010
000C
0009
FFF4
FFFF
FFF4
000C
FFFA
FFEB
FFF9
FFFF
0001
0010
000F
FFE9
000C
FFEB
002B
0002
0013
FFF4
001B
000D
001F
000A
FFEF
0025
000B
0006
000E
0005
FFED
0022
FFD7
FFD3
000F
001D
FFF7
001E
0008
0002
FFFC
000A
FFF4
0023
FFEF
0010
FFE9
0036
0008
0000
FFFD
0005
0016
0008
FFF4
0001
FFF2
FFED
FFF6
0018
FFFD
0012
FFDC
0022
FFE5
0005
FFFA
000A
0011
0019
FFFC
FFF5
0008
FFFF
FFE1
0009
FFF2
FFFE
FFFF
0011
FFF8
FFEB
0006
0037
FFFE
0017
0007
FFF7
FFDF
FFF4
0002
0000
0003
0005
FFDA
0004
0006
0001
0001
FFEC
FFFC
0007
001D
FFE7
0008
0012
0004
FFF8
0007
0010
FFF5
FFF9
FFD6
0002
FFF2
001E
0015
FFF4
0019
FFFE
000A
0001
FFFB
FFEA
0003
000A
FFF8
FFDC
0003
000C
FFFB
FFFF
0012
0005
FFEB
0000
000E
000E
001C
FFE7
0010
FFE4
0015
0015
FFF3
0011
FFF8
FFFA
0005
FFF7
0007
0011
001C
000D
FFEF
0009
0029
0009
0004
0006
0005
000E
000F
0014
0008
000B
000E
FFE8
0002
FFF3
FFE9
0009
FFD1
FFF3
FFFD
0016
FFF2
FFF6
0003
FFFE
000C
0016
FFF3
0006
0004
FFF8
0000
FFFB
FFFA
FFF4
0006
FFFB
0012
0000
000A
FFF4
FFE5
FFE1
000F
FFF0
FFF4
FFF3
0001
FFFE
FFDD
FFF5
FFF7
0017
0002
FFFB
000B
0012
0001
0004
FFFF
FFF1
FFFB
FFFD
000C
0001
FFF2
0003
0016
0010
FFFE
0001
FFEE
001F
FFD4
FFF7
FFF8
FFFB
000A
FFF8
0007
0016
0009
FFE8
FFFD
FFFC
FFEC
FFFE
FFF3
FFE9
FFE3
FFF2
FFF0
000A
FFE7
0017
FFEA
0003
000D
FFEB
0001
0001
FFF1
FFFE
000B
0000
FFFA
FFF8
0007
FFF5
0017
001A
FFF0
FFEC
0002
0007
0004
0012
0005
FFE9
000C
001F
0007
0012
0003
FFDB
FFF9
0030
0001
000A
0003
FFFC
0007
0000
FFF5
FFFB
FFFC
0005
FFEC
FFE6
FFE4
FFFF
FFFE
000B
FFDF
0022
FFFB
FFFC
0003
0011
FFE6
FFF5
000E
FFEF
0010
0005
0000
0033
0009
FFF4
FFDD
000A
0008
0003
FFE0
0014
FFE5
0003
0007
0005
0003
FFFC
FFFC
0011
0008
0013
FFF6
000E
FFE4
0003
FFF0
001A
0008
FFDF
0008
FFF6
0012
0014
FFE8
FFE6
0002
0001
FFDC
FFF7
FFFF
FFEF
0005
FFEA
0008
002F
0006
FFF5
0010
0007
0000
FFFC
0006
FFFE
FFF3
0008
0013
FFFF
FFF1
FFF9
0007
FFF7
FFE0
FFFE
003B
000E
0002
FFF0
FFE9
0009
FFEB
000F
FFEC
001E
000F
001D
FFD8
FFF0
0004
FFDB
FFFA
FFF7
000A
0026
0020
0008
FFDF
FFEF
0021
000A
0019
FFF3
FFFA
FFFA
0010
FFFB
0022
0004
FFFD
000F
FFEF
000A
FFFF
0008
000C
FFE4
FFF0
0007
0001
FFEF
0009
002C
0012
0004
FFED
0004
FFF0
000C
0000
FFFC
FFFB
FFFB
0001
FFF6
000F
FFF8
FFE8
000C
FFD6
0008
001B
0007
FFF5
FFEA
FFFC
FFEE
0000
0028
000B
0008
FFF4
0014
0006
FFE1
0015
0005
0013
FFF0
FFFC
FFED
0005
FFD6
FFE8
0014
0021
FFDA
002C
0000
FFEE
0031
FFEE
FFFA
000E
0015
FFE1
FFF8
0011
FFF2
0015
FFFA
0000
0005
FFE5
0000
FFFA
FFF9
FFED
FFED
0000
FFF9
FFF1
000F
0011
000E
FFF9
FFF2
0020
0004
FFF3
FFFE
FFEE
FFFF
000E
000B
0001
0003
FFFC
FFEC
000E
FFF2
FFFA
0018
0007
0001
FFFA
0001
FFF6
0005
000A
0017
0019
0013
003A
FFEC
FFFF
FFE0
0004
FFFE
0002
0001
FFF5
FFD9
0003
FFE6
FFF6
0000
001B
0008
FFF6
FFF3
FFF3
FFE3
FFEE
0017
0018
FFFF
FFEF
FFFA
FFFF
0003
000C
000D
FFEF
0000
000E
FFE3
000E
FFF6
FFFB
0006
FFFA
000F
FFF5
0018
0005
0007
0012
0009
000C
0002
0030
0005
FFF1
FFFF
0013
0002
FFF7
0014
0007
0003
0001
0001
000C
FFE9
FFF8
0000
0007
FFF0
0014
FFF2
FFEF
FFEB
000D
FFF3
0009
FFE9
FFF4
FFE3
000C
FFFB
0000
0006
FFFD
FFEE
0012
FFF1
FFDF
0010
FFFE
FFFF
FFE4
FFFF
FFF6
FFD2
0008
FFF6
FFFE
FFD4
0000
FFE3
FFF2
FFEA
FFFF
FFFC
FFF0
001F
FFF6
0005
FFF7
000B
0001
FFDF
FFEF
0003
FFFC
FFEF
FFF5
FFE2
FFFF
FFF9
0000
FFF5
0018
001C
0023
0010
FFE0
0014
0006
0000
FFFE
FFFA
FFFC
0019
FFF1
0004
000E
FFED
FFFF
FFF6
0028
FFF8
0011
0002
FFF9
0003
0001
0001
FFF2
000F
000C
FFFB
FFFE
FFF5
FFE4
000F
FFFD
FFEF
FFF9
0001
FFE9
FFF4
001B
FFE7
0002
FFF7
FFE4
FFEA
FFFA
FFF7
0001
FFFF
FFFA
0001
0001
FFF7
FFF3
001C
0006
002B
0009
FFF8
FFFB
000A
FFE9
0009
FFF3
FFF6
0020
FFF5
FFDE
0015
0013
FFEF
FFEC
0004
000C
0000
000F
FFFD
0014
FFFA
FFF2
FFFD
000F
000D
0017
0012
0011
FFEF
0016
FFFF
000C
000F
FFDF
0004
FFEB
0020
FFFA
FFF7
0009
FFFD
0008
FFF6
FFF8
FFEC
FFF2
0007
0003
FFEE
FFF3
FFDD
FFE7
0006
000E
FFE5
000D
0010
FFFF
FFE8
0017
0006
FFDF
001D
FFFF
FFF4
0016
FFFB
0011
000C
000E
FFF0
000D
FFE8
0005
0021
000A
FFEE
0012
0010
FFF2
FFF3
0004
FFF8
FFFC
FFF4
FFEC
0001
FFF5
001D
FFFD
FFE0
0000
FFE0
FFEC
FFF7
0014
FFFA
0020
FFF7
0012
FFFE
FFF4
FFFB
0007
0015
000B
0002
FFF4
0002
FFF9
FFF3
FFF8
FFEF
001A
001A
FFE8
0001
FFF4
FFFB
002A
000E
FFF4
FFD9
0004
0009
0017
0014
0023
FFEF
FFF9
0019
0024
0000
0002
FFFB
0001
FFFC
FFFD
001A
001A
FFEF
000F
FFD0
0003
FFF4
FFCE
FFF3
FFFE
FFE3
FFFB
FFF7
0004
0007
0017
0009
0012
FFF0
0001
FFE6
0016
FFED
FFF7
0003
0032
0015
000C
FFF9
FFF7
0018
000D
FFF4
0005
000C
FFF2
FFEB
0019
000B
0014
0011
000C
FFF7
0004
0011
0009
FFE5
FFD9
FFE2
000B
FFEA
FFF1
FFFE
0011
000F
001D
000A
000F
FFFF
FFED
FFE7
0011
FFEE
000F
FFFB
0001
0005
0005
000E
FFE8
FFF6
FFEE
FFEA
FFE1
FFEE
FFF1
FFF6
001A
0004
0003
FFEA
FFEE
0005
FFFD
FFEE
FFFB
FFFC
0000
FFEA
FFFE
0002
0008
0005
0008
000D
FFFE
001E
0010
0016
FFEC
000E
FFFA
FFF7
001E
FFE3
FFE7
FFFD
FFF1
FFFB
FFFA
FFFF
FFF6
0007
FFF7
0000
000A
FFD5
0017
FFFE
0002
FFFB
FFFD
0009
0018
FFEF
FFEF
FFFA
FFEA
001D
0003
0013
000C
000D
FFD5
0012
FFE6
FFF4
0009
0009
FFF1
0002
FFF5
FFF7
0007
0004
FFFB
FFFD
0016
0003
FFFD
FFFC
FFEB
000A
FFF9
FFE3
FFF6
FFF1
0017
FFF6
0012
0009
0000
FFEB
000E
001D
0019
000F
0017
000B
FFDC
0015
FFEF
FFFA
0003
0007
FFE2
0006
000A
FFF3
000C
0006
FFF0
FFFB
FFF4
001E
FFFD
001C
0003
000B
0017
0008
0002
FFF4
0006
FFE2
0008
FFED
FFE6
0001
FFF2
FFF3
FFE9
FFFD
002E
0013
0012
0000
FFFA
FFD4
FFF3
FFFB
0009
FFEC
002A
0022
0004
0001
0009
0001
FFE9
0005
FFE7
000E
FFF2
FFEE
000D
FFFD
0001
FFD7
FFE6
000C
0009
FFF7
0001
FFF8
0007
FFFF
FFEE
0003
0005
FFFC
FFF7
FFFE
0015
FFF8
0001
FFF6
0004
000D
0007
FFFF
000C
0005
0019
FFE9
0008
001C
0004
0016
0017
FFF6
0012
FFF1
FFF9
FFEC
0023
0003
0005
FFF7
FFFA
0007
0005
0020
000F
000A
FFFA
FFFE
FFF0
0004
0004
0002
FFF0
0026
0011
0009
FFED
FFF1
0032
0007
FFFA
FFFB
0011
FFF5
FFF4
0014
0011
0012
000F
000C
FFF2
000C
000A
FFFD
000D
0005
0002
000E
FFF9
FFF6
0000
0005
FFF6
000D
001C
FFF2
FFEC
0002
FFF2
FFED
001F
FFFF
0009
0010
0015
FFF5
0000
FFF5
FFDC
FFF6
FFFB
FFFA
FFFB
0017
0001
FFEB
FFF5
FFE3
000A
FFEC
FFFB
FFEC
000A
FFF0
000C
FFF2
FFFE
0021
FFDF
0008
0007
0011
FFF1
0004
000A
FFDE
0005
0008
0007
FFFE
FFFC
0010
FFF5
FFF3
0009
0008
0009
002A
000B
FFFE
000F
0023
0009
0014
FFF0
000A
FFEB
FFF6
000B
0000
FFEC
0000
0013
0006
000B
FFD5
0017
FFFB
001A
0031
0012
0003
FFFA
FFF9
FFEF
FFFA
0006
FFEC
000E
0003
0009
FFFC
001E
FFEC
FFFF
0022
FFFB
0001
0013
000A
FFFC
000C
000E
0002
0006
0018
001D
FFEE
0010
0014
FFF6
0004
0013
0001
000F
0011
000B
000F
FFF0
0032
FFFA
FFFD
0015
FFF6
FFF0
0006
FFF1
FFF4
000A
FFF7
0000
FFED
0010
FFDA
0015
FFEB
FFE2
000E
FFF2
FFF9
FFD3
FFEF
0027
000B
FFFE
000B
0003
FFDD
FFF9
0009
FFF7
FFF6
0007
FFFF
FFF8
FFE7
FFF3
FFF0
FFF2
FFF9
FFF2
FFFB
001D
FFFD
FFF9
FFE0
0000
0019
FFFD
FFF7
000D
000D
FFF8
FFE1
FFF2
000E
0000
FFF7
0007
0016
FFFE
0004
000C
0021
FFFC
FFF2
0010
FFFE
0006
0016
FFE8
0020
001A
0020
0008
0001
FFE7
0007
0004
0007
0002
001A
FFF0
0003
000E
0009
0003
FFEF
FFE9
FFE7
0007
FFFA
FFF6
0021
FFF0
000B
FFEB
FFF5
FFDE
FFF7
FFFF
FFEB
0012
000D
0009
FFE8
0012
FFF7
0006
FFF0
FFFB
FFFB
FFE6
FFEE
0012
000C
0005
FFFE
001B
000A
001F
0000
FFF6
FFF1
0009
0015
FFE5
FFFD
0003
001A
0003
FFFB
0014
0004
000A
000F
0000
0012
FFEB
FFF7
0018
000B
FFF5
FFDD
000D
FFFA
0012
000B
FFEC
FFD8
000C
FFE8
0006
0000
FFDF
FFF4
000E
FFFD
FFEC
0006
FFF4
FFF3
0011
0013
001B
FFFA
0013
FFFE
001A
0012
0005
FFFD
0003
0002
FFEE
FFFB
FFE5
FFEB
0013
0002
FFF5
FFFD
0007
FFFF
FFEE
0004
0014
001A
000C
0015
FFED
FFF6
FFE0
0006
FFEB
FFF8
0019
FFFD
000F
0009
0006
0016
FFFF
FFF4
0001
FFF0
002A
0015
FFF3
FFDC
0008
0022
0009
FFFC
FFFC
FFF0
0011
0013
001F
0001
FFFE
0015
0006
0005
FFFC
FFFC
FFF0
FFFA
000C
0007
FFE1
000A
000C
FFFA
FFF8
0007
FFEA
FFE7
FFFE
0008
000A
FFF2
FFF6
FFF9
FFF3
FFEA
FFE5
0001
000A
FFF9
FFFB
0018
0010
0008
000C
FFDA
FFF2
000D
0008
FFF9
FFF0
FFFD
0006
FFE7
001F
FFFE
0013
0000
FFF0
FFFB
FFD8
FFEB
000C
FFFC
0010
FFEE
FFF2
000E
FFCF
FFF4
FFFF
001D
000D
0011
FFEF
0010
FFF6
FFFC
FFE9
0019
FFFE
0026
FFF6
FFE5
0016
0016
0006
0008
000C
0002
0009
000F
0008
000F
FFE7
FFF2
0002
FFDF
0019
FFED
FFF7
FFFE
FFFD
000E
000C
FFEB
FFEA
FFE2
FFF8
000F
FFFA
FFF7
FFFF
FFF1
FFE8
0028
0009
0005
0003
000F
FFF7
FFFE
0008
000E
0008
FFEF
FFFF
000C
000E
FFF5
000B
0002
FFE2
FFFD
FFE6
0002
FFFD
0001
FFF7
0003
FFFD
FFFE
0029
0001
000B
FFF8
FFE9
0011
000F
0003
FFF7
FFF8
FFFB
FFF4
FFD6
0001
0012
0000
FFF9
FFFD
FFF8
FFFF
FFF6
FFF2
FFE5
0032
0012
FFF9
FFE4
0011
FFF8
FFE3
FFFA
0026
FFFD
FFF5
FFF3
000F
FFE5
FFF1
FFE1
FFFC
0010
FFE3
0016
FFF8
FFF0
0000
0001
FFEE
000B
001A
FFE9
000B
0002
FFF4
FFFD
FFE9
0018
FFFA
0002
FFF9
0018
FFF6
FFF9
0004
0001
FFFB
0001
FFEE
FFF8
0012
FFE8
001E
000D
0013
0012
000E
000D
FFEE
0002
FFFB
FFEE
FFDF
0006
FFF9
0012
FFF3
FFFF
0013
0015
FFE8
000B
FFF1
000F
FFE9
0019
000A
0022
0009
FFFB
0001
FFE0
0012
FFE4
FFE9
0003
FFF8
0010
0000
0019
FFF1
0016
000F
FFC3
FFFE
FFFA
FFF4
FFE8
000E
000A
FFF8
FFEF
0003
FFFB
FFF0
FFFD
FFF9
FFF8
FFEF
FFEE
FFD0
FFE5
0002
FFF4
0015
FFFF
FFE7
0006
0005
FFFE
000C
FFF4
000A
0000
FFF0
0004
0020
000C
FFE8
FFFD
000F
0007
0019
0008
FFFF
000D
0003
0026
0028
001A
FFF5
FFFE
FFE5
0016
FFFF
FFDD
000B
FFED
FFF2
0008
FFF5
FFFD
FFF9
0018
FFE9
0019
0002
FFFC
000B
0007
0002
0012
0009
FFFA
000A
FFF0
0004
0020
000A
FFDE
0005
FFF9
0001
0009
FFE0
000B
FFFC
0014
0016
0011
FFF7
000C
FFF6
FFF0
FFE5
0006
002C
000E
FFF7
0005
FFF4
FFFB
FFFC
FFFB
FFE2
FFFF
FFF7
FFFD
FFFD
FFF3
0027
0009
0003
FFE0
FFF5
0004
001D
FFEF
000A
0007
FFF9
0006
0018
FFF6
0002
FFFB
FFF6
0001
000E
FFF6
FFD8
000D
0003
001F
FFEB
FFEF
0016
0000
0001
FFF2
000C
000D
FFEB
0023
FFFB
0002
FFFA
FFD9
000B
000B
0000
FFFB
FFE9
FFEA
0006
000E
FFE7
0006
0004
0024
0001
0000
FFF8
001C
FFF8
0020
0006
0009
FFD6
0015
FFFC
0003
0016
0016
FFE3
FFE6
000A
0010
0004
000A
0013
FFF4
FFFA
FFF4
FFE6
000F
001C
0012
FFFE
FFEF
000D
FFF0
FFF1
0013
FFFC
FFF2
FFFA
0004
FFE7
0006
FFFD
000A
FFFB
001B
000A
FFEC
0001
0006
FFE5
FFEF
FFF5
0023
FFE7
0013
FFFE
0008
001B
0017
0009
0008
FFF0
0011
0011
0003
FFEC
FFFE
FFF1
0024
0006
0005
FFE7
000D
0009
000E
0010
FFE4
000C
FFFC
FFF1
000A
0011
FFE3
FFE2
0008
FFF3
FFFF
FFE6
0008
0004
FFF9
000B
000C
0012
FFEA
FFF7
FFF8
0018
FFE9
0010
0005
FFFC
FFF4
FFFE
0002
0015
FFDE
0014
FFF8
0016
0014
FFDA
FFF9
FFFF
FFF1
FFF7
0015
FFE8
000D
FFF6
0002
0000
0015
FFFC
FFFB
0023
0000
FFE9
FFDD
FFE1
0002
FFE6
0010
FFEA
0017
001A
0002
FFF4
0013
0010
001B
0006
0010
0010
FFF1
FFE7
FFD7
FFEB
FFFD
FFF7
001F
000A
0010
FFFD
FFF4
0011
FFE0
FFFD
001F
000C
0007
003C
0014
FFF1
FFEB
FFF7
FFF9
FFF7
FFEA
0002
FFF3
0001
0016
FFFC
0000
0004
FFEC
000F
0001
0006
FFFD
000A
000A
FFFB
000B
0008
FFE9
0003
0009
000E
FFE0
0003
FFF8
FFF5
0006
FFF3
000C
0000
000D
0004
FFFB
0011
FFFC
0009
0006
FFF4
FFEE
FFE4
FFFF
0001
0019
0007
000F
0004
FFF5
0010
FFFC
FFF0
0002
0006
0019
FFF4
FFD4
FFF7
FFFE
0008
FFFB
FFF3
0013
FFFB
000F
FFFE
000E
FFFB
0006
0003
0015
FFFF
FFEB
0000
0010
FFF7
000B
FFF5
FFED
0005
FFF2
0000
FFFF
FFFA
0003
FFF7
000D
FFF7
FFE4
FFE0
FFFD
0004
FFD8
FFFB
0006
0006
0006
FFF2
FFFB
0000
FFEE
FFFF
0006
FFF0
FFF9
0002
0013
FFEC
FFE8
0012
0020
0009
FFFE
FFE8
FFF8
FFF2
001E
FFE2
0004
FFF3
FFEE
FFF8
000D
FFF5
001B
FFEF
FFF2
FFF9
FFE2
FFFE
0021
0015
FFF8
000F
FFEB
FFF7
0001
FFE2
FFF0
FFFC
FFF5
FFF4
FFEC
FFF7
0021
001B
0001
FFEF
FFFE
001F
FFF6
FFF9
0026
FFFE
0005
0004
000A
0014
000C
FFFF
0002
0006
FFF6
FFE5
FFF7
0018
FFE4
FFFE
FFF6
FFFD
000D
FFEE
0013
000C
FFF4
FFE6
FFEC
FFF0
0004
0007
0007
FFF6
FFFE
FFF9
FFFC
FFF2
0015
FFF3
0008
0002
FFF4
0025
FFF6
FFE8
FFE6
FFFA
0011
FFF1
0005
FFFC
FFF0
0004
FFE1
0006
FFF3
000C
000B
FFED
FFEE
0000
0005
FFFF
FFEA
FFF6
FFF1
FFF7
FFEA
0007
0016
FFEE
0016
FFE7
0005
0016
0002
FFFD
FFF7
FFE7
FFF7
FFFA
0000
FFFB
0013
000A
0019
FFF2
FFE7
0004
0000
0007
000B
000F
000B
FFE6
FFFA
FFFD
0003
001D
FFF8
0007
FFF8
FFF2
FFFA
0004
FFFB
0005
0021
FFF8
001B
0003
FFF2
FFFC
002F
0003
0007
0017
0018
FFF0
0006
000A
FFFB
FFFA
FFF8
FFFB
0007
0030
FFFC
FFF0
0014
FFF6
FFDB
0020
0008
FFF6
FFF2
001E
0019
0001
FFE0
FFF6
0013
FFE8
FFD2
FFF3
0010
FFF4
0000
FFDC
0038
FFF9
FFFE
FFED
0012
FFF8
0007
0008
0001
000A
0015
FFF8
0007
0000
001C
000B
000F
0017
FFF8
0012
FFF3
000E
FFF7
000B
FFF7
0005
0002
0003
001F
FFE7
FFEB
FFFB
0010
000A
0005
0004
0016
0005
0006
000F
000E
0008
0004
000A
000D
FFEC
000D
000C
0004
0000
FFF2
0009
FFED
FFEB
000E
FFFA
001D
0010
FFFC
000B
0017
000A
FFFE
000E
000F
FFF0
0001
0000
000C
FFFD
FFFD
FFFD
0001
FFED
0006
FFD9
001F
000A
FFF1
0001
0018
FFFA
0025
0008
FFF1
FFED
0009
FFF1
FFF6
0011
FFFC
FFFC
000C
000F
002A
FFF7
FFD0
FFF5
FFFF
FFFC
0010
0006
FFF9
FFDD
000D
FFF7
0003
0011
FFF6
FFFD
FFEF
FFFE
0002
FFF9
FFE0
001F
FFEF
0005
0012
000D
000D
FFF3
FFD9
FFEA
FFF4
FFED
000B
000E
000D
FFF2
FFF4
000A
0001
0026
0012
0001
FFE5
FFFB
FFFB
FFFF
0007
000A
FFED
FFF2
FFFE
FFF8
0014
FFFD
FFF8
FFF3
FFEA
FFF0
0009
FFF6
0001
FFF9
000C
FFFE
0002
001D
000E
0007
0001
0013
FFF8
000A
FFF2
FFFC
FFFB
0011
000F
000E
FFF6
FFF8
0013
0006
FFFC
FFF8
0006
FFFA
FFFE
FFC5
FFF9
FFE9
FFF9
FFE6
FFFB
002A
FFF8
FFF4
FFFC
000D
0011
0006
FFFE
FFD9
0032
FFF1
0005
FFF1
0011
FFFF
FFF2
0006
0018
FFFD
0006
000C
001A
0001
FFF8
FFF9
FFF8
FFEA
0010
FFE7
FFFF
0010
0014
0000
FFFF
0003
0006
FFE0
FFF3
0000
FFF0
0004
FFFE
FFF9
FFFB
0005
FFF8
FFFE
FFDB
FFF2
FFEC
FFFE
FFFB
001F
FFF1
FFFB
000D
0010
000D
FFFE
FFF9
0008
FFF4
0007
000E
0003
FFF3
FFE7
FFF9
FFE9
000D
0012
0000
FFEC
0004
001B
FFDC
FFFA
FFFB
000D
FFF5
FFE9
FFED
000D
FFE8
0009
0006
0004
0013
FFF4
FFF0
0007
FFDE
FFEF
FFEC
FFE4
FFE2
FFFC
FFF1
0009
0004
FFFD
0010
0008
FFFD
FFEC
000F
FFED
0014
0007
0008
0021
FFF3
FFF1
0007
FFFE
FFE4
0004
FFE0
FFF6
0002
FFF0
FFFF
0006
FFFB
FFF4
FFFA
0002
FFF9
FFEF
0006
000D
0008
FFF1
000B
0006
000C
0003
FFF4
0002
FFF5
FFED
0000
FFFA
FFEB
0010
FFE4
FFFB
0008
000B
0009
FFF1
0003
0001
FFEC
FFF4
FFFC
000B
0001
FFFC
0016
0015
0012
0013
0006
FFFC
0005
FFDE
0006
FFF2
000C
FFEB
001B
FFFE
000A
001D
FFF4
0020
000F
0011
FFF4
0001
0005
000E
FFF5
000A
FFFA
FFEB
FFF9
0013
0001
FFF0
FFFE
FFFE
0001
FFFE
FFE5
FFF2
0011
FFE9
FFF6
FFFB
000B
FFF3
FFF5
000A
FFF9
000D
0014
000B
000C
0002
0025
000F
0002
0000
0000
FFE7
000F
002E
001D
FFF3
FFF1
002C
FFF6
FFFC
FFF8
FFE6
0007
0002
0022
FFFD
FFF5
FFF6
FFEA
FFFB
0002
0011
FFEF
FFE7
FFE6
0001
FFFF
000B
0015
0007
0004
0001
FFE6
FFE4
FFED
001D
FFEC
FFFC
FFEE
FFF0
FFF6
FFF5
0006
0009
FFFF
FFF9
FFF6
FFF5
FFDF
FFF0
0015
000E
FFFD
FFF0
FFF5
FFD6
0011
FFEC
FFDE
0004
FFDF
0001
FFE7
FFF1
0025
0003
FFEE
FFFE
0008
000F
FFFA
FFED
0009
FFF0
0003
0004
FFFA
FFF5
FFF9
000F
FFE3
000A
FFE1
0013
FFE2
FFFB
0013
FFF0
0009
FFE4
FFF7
0009
0001
001B
FFFB
FFF5
0002
000B
0006
FFEC
0002
0011
0012
0019
FFFB
0006
0020
0029
0019
FFF7
FFD9
0004
0003
0005
0018
0002
001D
FFF2
FFFC
FFE8
FFE3
FFF3
001B
0014
0019
FFF7
0002
0000
FFE9
FFF1
0002
0021
0011
0001
FFFA
0005
001A
FFE8
FFFF
FFEF
0002
FFF4
0016
000F
FFEC
FFFD
0020
FFF5
FFEC
FFEC
FFF3
FFF5
000A
0017
FFE1
FFFF
0004
0004
0006
FFF3
FFFA
FFFE
FFFF
FFF3
FFF2
0001
000A
000F
FFFF
FFF6
FFFE
FFF0
0004
0002
000B
FFFB
0011
0000
0008
000C
0018
FFFA
0017
000D
000B
001F
0000
FFF8
FFFF
FFE7
FFFE
FFDE
FFF6
000B
000C
0008
000A
FFFA
000C
FFF4
000E
0002
FFEE
0014
0022
0006
FFF9
FFE8
FFFE
0010
0017
0005
FFD5
0005
FFF2
FFDD
FFFB
FFDC
0012
FFF9
0011
FFF4
FFF4
0002
002B
FFF1
0013
FFE3
FFF4
FFEE
FFFA
FFFF
FFE5
000B
FFEF
0007
FFF0
FFE8
FFE8
000B
0001
0024
000E
FFFF
FFFB
0021
000C
000C
FFEB
0004
FFF9
0011
0001
001A
0012
0022
0004
0006
0008
FFF3
FFE4
000E
0009
0009
0000
0021
0007
0007
FFEE
000D
FFEE
FFEF
FFF4
000D
0013
FFEE
FFF9
0003
FFE7
0005
0020
000D
FFFA
0010
0000
FFF5
FFFE
FFF4
000A
002A
FFF9
FFEA
000F
FFE8
FFFB
FFFA
0017
FFF1
0000
0014
FFFA
FFF1
0009
FFF6
0012
0004
FFED
FFFB
0006
0020
FFEA
000D
FFEB
0010
0007
002B
0010
FFFF
001A
0005
0001
FFF3
FFF5
FFFD
000A
FFDC
0008
0001
0017
FFF6
FFE6
0003
0004
FFFD
0016
0001
FFEB
FFF2
0001
FFF4
0010
FFF9
FFF2
FFEB
0002
0007
FFFF
0000
FFF6
FFEF
FFDB
0020
0000
0004
002A
0009
FFC5
0014
000A
0002
FFDD
FFF2
000A
FFF4
FFD2
000E
0015
0016
0001
0003
FFE3
0007
FFF1
FFF0
FFF7
0005
FFFA
0002
0018
FFF8
0005
0007
FFF9
0016
0008
FFE8
FFFE
FFF3
FFF5
FFF7
0010
FFFA
000B
0006
FFF4
0003
FFEB
FFEA
0024
FFDF
0012
FFF9
FFF1
000D
FFF5
FFE7
FFEE
0005
000F
0008
FFFC
FFF0
FFF7
FFEE
0004
FFF2
FFF5
0013
000B
0008
000A
FFFD
FFE5
FFF3
FFF5
002C
000E
0014
FFFB
FFEB
FFFD
FFED
001A
FFEA
0004
0022
0002
0000
FFEF
0029
FFF9
FFF8
0001
FFEF
0011
0014
0001
000E
0004
0013
FFFA
0006
FFE8
FFEB
FFE0
FFCF
0003
FFF7
0025
0004
FFE3
0002
FFE5
FFFC
FFFE
FFF9
0018
0011
0009
FFE6
FFED
0004
0017
0009
0006
FFEE
FFE1
FFE1
FFEE
FFE8
000A
FFEB
FFFF
FFDA
FFF4
0023
0021
0009
0005
000C
FFFF
FFED
FFF8
0000
0004
0010
0013
0016
FFFD
FFFC
FFF9
FFFC
000C
0015
FFF9
FFDB
0008
FFD8
FFF3
FFFA
001C
000E
0002
0004
FFEA
FFF6
FFEF
0019
FFF1
FFF0
0016
001D
0013
FFE7
0013
FFFB
0007
FFF7
0006
0009
FFF7
FFF6
0008
FFFC
0007
FFFB
FFF3
FFFE
FFE6
FFF8
FFED
FFE2
001A
0011
0006
FFC3
FFFD
FFFB
FFF7
000B
FFEF
FFEC
000F
0024
FFD6
FFFB
001E
000E
0006
FFEF
0008
FFF6
FFEE
0002
000F
0009
000D
FFF2
001B
FFF3
0015
FFD2
000C
FFF2
000A
0012
FFF3
0013
FFF0
FFED
000E
0008
0007
0018
FFFF
0003
000E
000C
0004
0007
0027
FFFB
0023
FFFF
FFF7
FFF4
FFF9
0003
0019
0007
FFF2
FFEB
0001
FFE3
FFDF
FFEE
001F
FFFC
0011
FFFD
0007
0012
FFFC
0023
0019
FFF9
001B
000C
FFED
0024
0008
0014
0012
0002
0016
0025
FFCF
0021
0011
000E
000B
0004
0009
0013
FFE9
001B
0001
0006
0010
0008
FFF8
FFF1
FFF6
0004
FFF3
FFF1
000F
FFE3
FFFE
0003
FFF8
000D
FFF8
0023
FFF4
000D
FFDB
0013
FFFC
0007
0003
0000
FFFB
0015
0008
001C
000A
FFF2
FFF0
0006
FFEC
FFF8
FFF4
FFFA
FFE8
FFF7
FFFF
0001
0005
000D
FFFD
0012
0005
FFF6
FFF5
FFFA
FFF5
0010
0012
000A
000B
FFF8
FFE3
002D
FFF9
0001
000B
