FFF2
0003
0012
0006
0007
FFF3
FFFE
FFFB
FFF5
FFED
FFF6
FFFD
000A
0014
0016
FFFC
001C
000A
FFE8
FFEF
000F
0001
FFEF
FFE5
000C
001B
FFE3
FFE0
FFFD
FFD7
FFDB
0003
FFD7
0003
FFFC
0009
FFF4
0026
0016
000B
0002
0012
FFDF
FFF2
FFEA
0004
001B
FFEE
FFED
0027
0013
FFEC
FFFE
FFFD
000E
0015
000C
0004
0027
0003
FFF2
0005
001D
001D
FFD2
001E
0009
000B
FFFE
FFE7
FFFE
FFE7
0019
000C
0003
0009
0008
FFF3
0012
0003
0001
0009
000D
0038
FFF6
FFF9
001F
0004
FFE9
0035
FFF5
FFFA
FFFE
FFFA
FFF9
FFF2
FFF9
0015
0000
FFD6
0015
0018
FFF5
000F
FFFD
FFF3
0007
FFF3
FFFA
FFF8
0008
FFFD
0019
0032
0007
0008
FFF1
FFE6
0006
FFFF
FFEB
0011
FFE7
0000
FFF2
0011
FFDC
0001
0001
0006
FFE9
0006
0016
FFFD
FFFE
0014
FFF5
000A
FFE6
002C
FFF2
0003
0002
0008
FFFF
FFF0
FFF8
0000
FFFC
FFF1
FFEE
FFE7
0007
FFEB
FFE5
FFDB
0007
FFE8
000D
FFE4
FFF2
FFFB
0003
000C
FFF9
000C
FFEC
FFF1
0000
0008
FFF7
0007
0010
0019
FFF8
FFFD
FFF7
FFDC
0007
FFE9
0005
0028
0005
FFEB
0016
FFC3
FFEF
0002
FFE2
FFE6
002C
0011
FFFA
001D
0024
0016
FFE4
0004
FFE9
002A
FFFD
0002
0016
0001
FFFC
FFE1
000A
FFF2
0009
000B
0033
FFED
FFF7
0001
FFF4
0015
FFEC
001B
000A
FFE2
0017
003C
FFF8
0019
FFE2
0014
FFED
0000
0012
0014
0008
003A
002B
FFF4
0004
FFD0
FFE8
0015
000E
0002
0012
002C
0008
0010
FFF7
FFE2
FFF4
FFF9
0027
FFEA
0011
0002
001B
FFEB
FFE5
FFEC
0004
0006
FFFC
0006
FFF9
FFF4
0010
FFFC
000E
0011
0011
000F
0004
FFE6
000B
0001
0011
FFFD
FFF4
0011
0017
000C
001B
0033
FFF6
0010
FFEF
0003
FFF4
0000
0009
0011
0005
0000
0001
FFE8
FFFF
FFEE
FFF3
0007
0003
FFE4
0014
0012
FFE8
0011
000D
000C
FFFA
0008
FFF0
FFD9
0013
FFEA
0004
FFEB
0005
0022
000E
FFFA
0012
FFF3
FFFB
FFF1
FFC9
000E
FFFC
0010
FFF2
FFFF
FFE7
002E
FFEB
0020
0009
0009
0010
FFE1
FFFF
0007
0004
000E
FFF9
FFF8
FFF6
FFDB
0009
FFEE
0007
FFE3
0004
FFFA
FFF6
FFD3
FFEE
FFFD
FFE5
0017
0000
0014
FFF0
0001
FFF4
0002
FFFB
0005
000A
FFFB
FFC8
FFF4
FFF9
0001
0011
0009
000C
FFEB
0013
003B
FFF8
FFFE
FFFF
0004
FFFA
FFE8
0006
FFE7
0009
0008
FFFB
FFF7
FFEE
FFFF
0013
FFED
000D
0008
FFF7
0001
FFE9
0003
001C
FFF8
001D
0013
0004
FFED
FFF5
000F
FFE6
FFF0
FFFD
FFDD
0001
0006
0006
002A
FFDF
0019
002E
0001
FFFE
001C
FFEF
FFF7
0016
FFE1
FFEB
FFF7
FFF3
0026
0024
0039
0002
FFFC
FFF4
0002
FFD9
FFEA
0007
0004
000D
000C
FFFD
FFFF
0011
000E
0015
FFF1
FFF9
0013
FFF2
000D
0015
FFC8
0004
0002
FFED
FFE9
0007
000E
FFF6
FFFD
FFE5
FFFC
0033
FFFA
000E
FFF8
FFF0
FFFE
0015
FFE1
FFFE
FFFF
0023
FFEC
0001
FFD8
0015
0017
FFF4
FFE7
FFF8
000E
FFE7
FFF1
FFEA
000E
FFDA
FFED
001D
0024
FFF0
FFFB
0005
0007
FFEB
0010
0010
FFF8
0013
FFF4
0002
0005
0019
000C
FFF2
000F
FFF3
000B
FFFD
FFFC
0015
FFF4
000A
FFFE
0023
0004
0000
000A
0011
0025
FFFA
0004
FFFB
0000
FFE3
001F
0008
0018
0006
FFED
FFE1
FFF8
001D
FFDA
0000
FFF0
FFF7
FFF8
0001
FFEB
FFD5
0018
FFEF
FFF9
FFE9
FFE4
FFF1
0004
FFEF
FFF5
FFEA
FFF3
FFDF
FFDF
000E
FFEF
001D
FFF8
FFE3
FFFC
FFE8
0002
0010
001E
0008
FFE8
0024
000C
000C
FFE8
FFF5
0016
0020
0016
0012
000A
FFEE
FFFC
0007
0003
FFE8
000B
0006
001C
0016
0019
0006
0016
0004
000F
FFF9
FFE8
FFF9
003A
FFE2
FFF4
0007
0014
0012
000C
0000
0013
001E
FFD8
0011
0012
001E
FFD8
0006
FFB8
FFF9
0020
FFEB
0014
FFEF
0006
000D
0004
001E
0007
FFFD
0000
0001
FFF2
0035
FFE8
000E
000A
0002
001A
0003
FFDD
0005
FFE3
000E
FFFC
0000
0018
FFF6
FFFC
001B
0016
FFF9
FFFC
FFEB
FFD9
FFF1
0015
0005
FFCF
0000
FFF9
FFFF
FFEB
FFE5
FFED
FFEC
FFEB
FFF6
0010
FFF2
FFF4
0023
FFF5
0009
0001
FFE0
FFF5
FFDA
FFE4
FFE6
0014
FFFD
FFE3
FFE3
FFDA
0001
FFEA
0037
0002
0004
FFF4
001C
FFED
FFF7
001D
0009
FFF4
FFE9
0008
000A
0000
FFF3
FFFE
001A
FFED
000D
0010
0030
FFD4
0011
001A
FFF6
FFF6
FFF0
FFFB
0002
FFF8
FFCB
000C
0004
000F
0012
0009
FFE9
001B
FFF3
FFFC
0013
0018
0010
FFE3
FFFA
0006
0024
0005
0009
FFF5
FFE4
0010
0000
FFF1
FFED
000D
FFD2
FFF4
0002
0016
001E
FFE2
0003
FFFA
0000
FFEE
0002
FFF1
FFF9
001F
0007
FFFE
0003
0017
FFEC
FFF3
000B
FFF6
FFDD
FFFD
FFFA
0018
FFF5
000A
0006
FFC7
FFEB
FFF4
0021
FFE9
FFFB
0007
000D
FFEE
FFE3
0016
FFFA
000C
002F
0000
FFF0
001F
FFFF
0002
000A
FFF9
0010
FFF1
FFFA
0009
0006
0009
0005
FFF5
FFE6
000B
FFFA
FFE6
FFFC
FFFC
FFF8
000F
0008
FFFC
001B
0014
FFD6
FFFD
000B
FFFA
FFF5
0008
FFEA
FFFF
FFF4
0007
FFD0
FFDB
0004
FFFA
FFF1
FFEF
0023
FFFD
FFF0
000F
FFE2
FFF0
FFDB
FFE8
0008
FFFB
0004
0017
FFFD
0010
0010
FFFA
0000
FFF2
FFF1
FFE3
000C
FFF4
0002
FFFD
0030
FFFD
FFE9
0024
FFED
0005
0000
FFF4
000B
FFFB
FFF4
FFFA
000A
0004
0012
0005
001D
FFF3
001B
FFEA
FFD8
FFF0
0014
FFF4
FFF1
0001
FFEC
FFF9
FFF7
0016
FFF6
0023
0003
0001
FFF4
FFF7
0005
FFEC
0007
000C
FFF5
0030
0014
FFF3
FFD8
001E
0006
0013
FFF6
0011
FFD4
FFBF
FFDB
000D
002A
0015
FFFE
0003
001B
0003
001D
0001
FFF7
FFF7
FFEE
FFDC
0000
0011
0003
000D
0001
0015
0017
0026
FFF0
FFE3
0017
FFED
FFF7
FFDB
001C
FFFA
0005
FFDF
0000
FFF9
0010
FFF5
FFF3
FFE7
FFF1
FFF3
FFF8
0012
0004
FFF8
FFF4
FFFD
FFF2
0003
FFD7
0019
FFEF
FFDD
FFF4
FFF6
FFF1
FFFA
0009
FFD1
0003
FFE7
FFFA
FFDE
0035
FFFD
FFF1
000D
FFFA
FFE9
FFF0
000C
0017
0002
FFF4
FFF3
0003
0016
000D
0012
FFE5
FFE4
FFF8
FFF5
0019
FFF4
0003
0008
000C
0005
0005
FFEE
000B
002A
FFE3
001B
FFF7
001F
FFFF
FFE6
0011
FFD9
0001
FFF2
FFFD
FFEE
FFF5
FFFB
FFFE
0000
0007
FFFF
000D
FFEB
FFE8
0006
0016
FFE2
000D
0002
0003
000D
000F
0001
000F
FFE9
FFFE
FFEB
0016
FFFD
0016
001A
001D
FFFF
0039
FFF5
000D
FFFD
FFF3
0011
FFEF
FFD2
000E
0030
0007
FFE3
0005
0013
FFED
001C
FFF9
000C
0017
001F
FFF8
FFE7
FFFE
FFF2
FFE6
0037
0009
0005
0012
FFF5
FFFA
FFEB
0021
FFDC
FFF8
FFF7
FFE3
FFF7
0038
FFF5
0002
FFFF
FFF9
0000
0010
FFDF
0010
FFDE
0006
FFF1
FFFF
FFFB
0002
FFEF
000D
FFE6
0006
FFFE
FFF7
0004
FFD5
FFF4
000A
0015
FFF8
FFED
FFE9
0017
FFEF
FFE2
0001
FFEC
FFD9
FFF8
FFF1
0010
0015
0004
0017
FFF1
FFFD
FFFA
FFD8
FFFE
0010
0023
0013
0001
FFE5
FFED
FFF1
FFF8
0016
FFEC
FFE7
0019
0008
000F
0014
FFC7
0026
0004
FFFB
001F
FFE4
FFEE
001B
000A
FFC8
FFF8
0007
0015
0005
0008
FFE3
FFEB
FFF8
FFF6
0008
0023
FFEB
0003
0001
001C
FFDA
FFF9
FFF3
000B
0030
FFE9
000C
FFED
FFFA
FFF7
0009
001A
FFE7
FFF0
FFF5
0011
0003
FFF6
FFFA
000E
0000
FFD6
FFF4
FFFF
0003
0009
0013
FFF3
FFFD
000B
FFCD
FFFE
FFED
0006
FFF6
FFFD
000C
FFF0
0002
0005
0011
0005
001D
FFFC
FFFB
0009
0017
0002
0013
001C
FFF6
000F
0005
FFE6
002E
0033
000A
FFF4
FFFB
000B
FFDB
0011
001A
0032
0010
FFF2
0005
002D
0008
0007
000C
FFF7
000E
0007
FFD4
0008
0013
FFF3
000C
FFF7
FFF1
0000
FFF7
FFFF
FFDF
FFE8
FFFB
FFEE
001D
FFDD
FFDD
FFEC
FFEF
0004
FFED
FFEF
0004
FFEC
FFF0
FFFC
001E
0008
FFF3
FFFD
FFF7
FFDA
FFFA
FFF1
000C
FFE4
FFE7
FFF0
FFDF
0029
FFEC
FFCF
001B
000C
FFE0
FFB6
FFE5
0006
FFF2
0024
FFDF
0001
FFDF
0003
FFF9
FFF7
FFFB
000A
0009
FFEF
0010
0018
FFEB
FFF6
FFE7
0001
FFF4
0006
FFEA
FFE9
FFF9
FFF1
000A
0028
0026
FFF7
FFFF
FFEE
0015
0021
FFF5
000C
FFFD
FFEB
FFDF
FFF0
FFD8
FFFA
FFE9
FFF8
0034
0007
0005
0010
0003
FFEA
0005
0005
FFF2
FFEC
FFF0
FFDD
0025
FFEF
FFF9
FFF2
FFFF
0000
FFFE
000E
FFE5
0014
FFFC
0023
0002
0000
0002
0024
FFFE
FFF0
FFFD
FFF7
FFF5
000D
0016
FFFA
FFD1
000D
0008
0022
FFFF
000D
0012
001C
FFFC
0015
FFF8
0027
FFE0
FFF1
0002
0000
000A
FFE4
000C
000F
002C
000D
FFF8
0012
FFE0
FFF3
0001
FFFC
FFC3
0013
0026
0000
0003
FFF6
0016
0006
001D
FFF5
0009
FFF0
FFFE
0000
FFFA
0013
FFFE
FFDE
000F
0012
000B
0004
FFF4
0012
001E
0001
FFF3
FFFA
000D
FFFE
0020
FFE8
0016
FFFB
0020
FFF4
0000
000C
0029
0028
FFF1
FFD2
FFF2
0000
0010
FFEA
0014
0009
FFFA
001E
FFF6
0012
FFD0
FFE1
FFEF
FFE5
0010
000E
FFFB
FFD6
0010
FFF8
0016
0020
FFEF
FFE4
FFF2
0015
FFEE
000A
FFDB
FFF7
FFD8
FFFE
0017
0001
000C
000C
FFFC
FFEB
FFFA
FFEC
FFF6
FFE1
FFFE
FFF1
000B
FFFC
FFEB
0015
FFFB
001D
0006
0007
FFEA
0002
FFF8
002B
001B
FFEC
FFE8
0015
FFED
0003
0009
000B
0015
000E
000A
FFEF
FFE6
0016
0003
000F
000E
0015
0015
FFFC
000C
0005
0018
0022
FFF2
0005
FFFE
FFF7
FFFC
FFF0
FFEC
FFFD
000C
001B
0002
FFE8
FFF4
002C
FFFA
0008
0013
FFEA
0003
0001
FFE1
FFF9
0005
FFF8
003B
0022
FFEB
0008
FFFD
FFF2
0023
0003
0001
0000
0008
FFFC
0013
FFEE
FFFB
0005
FFEB
FFF7
0008
FFDD
0010
FFE6
0011
0013
0009
000D
0026
FFEF
FFDB
0012
0014
0012
FFFE
0024
0013
0012
FFF8
FFF3
FFF3
0013
0011
0002
FFCD
FFF1
FFF2
0014
001C
FFF9
FFF8
FFE8
0008
FFF7
FFF4
FFE8
FFF5
FFFC
FFE0
001A
FFE8
001A
0001
FFDE
FFE3
FFE6
001E
FFE6
000B
0004
0009
0006
FFF1
000D
0010
FFF8
FFE2
0021
003E
000D
0011
FFF8
0009
FFFE
0019
FFFF
FFEA
001B
001D
0010
FFFD
0012
FFFA
FFEF
FFF1
0007
0001
FFF0
0009
002A
FFE2
FFF9
0011
FFDD
FFDD
FFFC
0013
002D
0017
FFF1
0017
0008
FFF4
0050
0002
FFF6
0021
FFDF
0003
0003
0011
FFFF
0009
FFFD
FFEB
0042
FFEF
0003
FFE8
0032
FFF1
FFF2
0018
FFED
000A
FFF4
000A
0019
001E
FFD9
FFFE
000C
0004
0003
0002
FFEA
0002
0011
000E
FFE6
FFF9
FFF5
FFF6
FFE7
FFD5
001A
001D
FFE2
FFEB
0007
000B
0007
0027
000A
0000
0008
0013
FFFD
0003
0007
0017
FFD9
0010
FFE5
001A
0006
000C
0001
FFE6
FFEE
0009
001A
0013
000F
0011
FFEE
FFEB
0001
001E
0001
FFFA
000B
0001
FFFC
0000
FFFD
FFFE
0020
FFEE
0000
FFFF
FFFD
FFF3
0002
FFE1
0005
FFE3
FFEC
FFE3
FFFB
0005
000D
001F
0010
FFF2
0029
0010
0000
0014
0013
FFED
FFF7
FFEA
0022
FFF1
0002
000B
0000
001F
FFFF
000A
FFDC
002A
000D
000E
000C
FFFC
001A
FFEE
FFE3
FFFC
000B
0029
0012
FFF8
FFF2
0009
FFED
FFF6
0009
FFF4
0003
FFF2
0012
0012
0038
FFFD
000A
FFDD
0031
0000
FFEB
FFFF
0004
FFFD
0018
FFED
000F
FFF7
0012
0023
000B
FFF8
FFED
0005
FFEE
FFFF
0009
FFF2
0016
0015
0008
0004
0000
001A
0005
0019
FFD9
0000
000E
FFF5
FFF8
FFD5
FFF4
0006
FFE0
FFE2
002D
FFEA
0011
0011
000A
0001
FFFF
000D
FFFD
FFDB
0010
0000
000A
0015
FFF7
001B
0014
FFE8
0017
0009
FFFD
0007
FFFC
002A
0011
FFDB
0007
0020
000A
000E
0013
0004
FFE8
001A
0000
FFF0
FFEC
FFDF
FFEF
FFFB
FFC8
FFDA
0014
FFF5
0011
FFFC
003E
FFCC
FFFB
FFDD
002A
001C
FFEF
0017
FFE6
FFFD
000A
FFEB
0017
0024
0008
FFF3
0012
FFF9
000E
FFF3
0002
0011
0012
FFE2
FFF5
FFEA
000B
FFD6
0030
FFEF
FFE0
0005
0018
FFF1
FFEC
0016
002B
FFE3
0021
FFEF
FFD9
FFFE
000D
FFF2
FFE4
0001
FFF5
0000
0003
FFE8
0006
FFFF
FFCF
FFD8
FFFC
0008
FFFD
FFDD
FFCC
0013
FFFA
000A
FFF9
000E
FFFD
000B
000B
FFFA
0004
FFE3
000A
FFFB
0013
0007
001F
0012
FFF7
FFD0
001C
FFD5
0019
FFCD
0005
FFF9
FFDF
FFF6
0006
FFE7
FFD9
FFD0
FFF0
0020
0013
FFF4
0012
FFD1
0004
FFE6
FFE3
0003
0007
000D
FFE4
FFDD
FFFE
0007
0004
FFE3
FFFC
0014
FFF6
FFF9
0004
0013
FFE9
000D
FFD1
FFF0
FFFD
001B
000E
FFEA
0016
FFEB
FFCC
000B
FFE8
FFE7
000A
FFE2
000E
FFDE
FFE4
0002
FFCB
FFF2
FFBE
FFC1
FFED
FFF1
0008
FFF3
FFFC
FFF2
0026
0003
001A
002B
FFE1
FFC8
0017
0007
000A
FFFC
0000
FFFA
FFDF
FFD9
FFFF
0002
0022
FFFB
0018
0006
0022
FFE7
0009
FFF0
0006
FFE9
FFE2
000E
0008
0008
0000
FFE2
000A
FFFA
FFDB
FFFA
002B
0023
0013
FFFE
FFE4
0002
FFF1
FFF9
0010
0018
0007
0003
0009
0009
FFF2
FFF0
0015
FFED
FFF7
000F
001C
FFE8
FFEF
0007
FFE3
FFF1
0007
000D
FFFC
FFF3
000F
FFF5
FFDB
FFE0
FFFB
FFEB
FFD2
0009
FFF2
FFE4
000F
0025
0014
FFF5
0023
FFF7
0003
FFFF
FFEF
FFFD
FFFD
FFFE
000E
0001
0000
0001
FFED
FFEA
000B
FFFE
FFFA
FFEB
0015
0026
FFE3
0007
0017
0003
0006
0001
FFF9
FFEC
FFC1
0006
FFE4
0003
FFE5
FFEC
FFF3
0014
0003
002F
0018
0016
0016
FFFF
FFE5
0007
FFF5
FFE4
0001
FFFD
FFFD
0001
0011
0006
FFFE
FFEE
0009
0009
000A
FFED
FFFB
FFFC
FFFF
FFE6
0039
001E
FFEA
FFFA
0018
0000
FFF4
FFF6
FFEB
0016
FFFF
FFDA
0005
0025
FFDC
001A
0001
0001
FFF3
FFDB
FFED
000E
0011
FFF4
FFF7
FFD6
0011
0004
0003
FFF2
0006
FFFE
FFF8
FFE9
FFD6
FFEC
FFF4
FFFE
FFE1
0012
0018
FFEA
000E
FFFC
0011
001E
FFEB
FFEA
000F
0005
0005
0033
FFF1
0006
FFF4
FFF4
0002
0014
FFE5
0019
0016
FFFD
FFFA
FFE5
FFEB
0015
0016
0022
FFEE
FFD3
0019
0012
FFE9
0002
0014
0007
0018
FFEA
FFED
0002
FFFF
FFF9
0010
FFDE
FFF3
FFF9
0023
0022
0007
000E
FFF4
FFCC
0011
000E
FFFD
0023
FFE3
0011
000D
FFCF
0002
001F
FFFB
FFF9
0027
FFFD
0004
0001
FFE7
FFF6
FFEC
000C
FFED
FFE7
0000
0004
002B
002F
0002
FFF2
FFF1
0002
FFCE
FFDA
000F
0023
0018
FFD7
0004
0006
0015
001A
001B
0005
0016
0016
FFFE
0026
FFEB
000E
FFEF
000F
0006
0016
0017
FFF4
0017
FFFF
FFFC
0016
FFFF
FFF6
0012
