FFF3
FFE5
FFFE
0018
FFE7
000D
FFF2
FFEC
FFFD
FFE5
FFF2
FFE1
0032
0001
FFEE
0005
FFFD
FFFA
0010
0013
FFF2
FFF1
FFF9
FFC5
FFD9
0023
002A
FFFA
000F
0008
004F
001D
FFFD
FFE8
FFD7
0005
FFED
FFDC
FFEF
FFE4
002B
0017
0000
0026
0002
FFEA
0027
000E
FFE5
FFFB
FFEA
FFDD
0018
0031
FFDC
000E
FFEF
FFF4
FFF1
FFEA
0001
FFEB
0007
FFFF
FFFA
FFE9
FFF1
0013
000D
FFE7
0003
0013
FFD5
000E
FFEF
000F
FFEC
FFD2
FFD6
0001
0007
FFE9
0010
FFD5
FFFE
FFE1
FFEF
0001
FFEA
FFF6
001A
FFF1
0015
FFE3
000E
0025
FFC1
FFEC
000F
FFFB
000A
FFF1
0002
FFFC
001E
0007
0009
FFF5
FFF4
FFF5
000A
FFF5
0007
0035
0016
FFF8
001F
FFF6
FFCC
FFE6
FFD0
FFF7
0000
002B
0008
FFFA
0015
FFC7
0006
0014
FFDA
001D
0009
FFF5
0010
003A
0005
0006
FFF4
FFEA
0015
FFEA
0002
FFF4
000C
0009
001B
FFF3
FFF9
FFE7
FFF5
000A
0013
FFE8
0016
0023
000B
0030
FFEC
FFE0
FFD2
0026
0011
FFFF
0007
FFE3
003F
0003
0003
0013
000C
0006
FFEC
000C
0030
0022
0029
FFF3
FFE7
FFFD
0001
001C
FFD5
0027
FFFC
FFF5
FFE6
FFD6
0015
0002
FFDF
FFDF
FFF7
002B
FFF9
FFDA
FFFA
FFF9
FFBB
FFFF
FFFA
0012
002F
001D
FFF9
FFE4
0042
0002
0000
FFFF
0005
FFFC
FFF1
FFF2
FFFF
FFF2
FFEE
0003
FFF9
0027
FFBC
001C
0020
FFCB
FFF7
FFF6
FFDC
FFEC
FFE4
002D
0018
0021
0012
FFE3
FFF3
000D
FFE1
0012
FFFA
FFF6
0012
000B
FFF7
001E
FFE4
0010
000F
FFF8
0008
FFE0
0018
FFFB
FFF3
001B
FFEE
FFDC
FFD8
0010
FFDF
002D
FFCB
002B
0005
FFFE
FFF2
000A
FFFF
001C
0003
0004
FFF7
FFFF
0008
FFD4
FFDD
0013
0004
FFFB
0000
0009
FFF2
FFEC
0005
FFE7
000A
FFD4
001A
000C
0007
0019
002B
001A
FFD1
FFDF
FFF0
0001
000D
FFED
0005
FFED
FFF0
FFDC
FFE8
FFDD
FFE7
001B
FFE8
0043
000D
0005
FFEA
0012
FFF1
0003
0042
FFFE
001D
FFEE
FFFF
002D
FFF0
002E
0012
FFF2
0010
0019
0010
FFD8
FFED
FFFA
FFFE
0010
0005
FFDE
000A
0010
000E
001C
0015
000C
FFFE
FFD5
000B
0005
0007
FFDF
FFE4
001B
FFFF
0011
0001
0001
0018
FFF3
0002
FFF4
FFF5
FFF8
0006
FFF4
0020
FFE9
FFFB
FFF5
0025
0005
001A
FFDA
0007
0017
0002
001B
FFF3
0024
003B
FFF7
FFF5
0025
0028
FFF3
FFF5
FFF9
FFDE
FFE8
FFE6
FFEC
FFFF
0006
0028
FFE6
0019
FFFB
FFFF
0011
FFE3
000A
0004
000D
0007
003F
FFF0
FFF2
FFF0
FFF2
FFF0
001E
0024
FFF1
FFEB
000C
FFF2
0010
0005
FFD9
0028
002E
FFF0
FFF6
0007
0009
0011
0033
FFFB
FFEC
FFDD
FFED
FFFF
002E
FFF3
0006
0000
001E
0041
FFF2
FFF3
001B
0011
002F
000F
FFF7
000F
001C
0015
000D
001B
001E
0023
0011
FFFC
0004
001F
FFEB
0009
FFF6
0001
0021
0005
0001
FFDD
0013
0011
0037
FFF8
0006
0006
0028
FFFE
0007
0010
0005
FFF5
0005
001B
FFE6
0003
FFEE
001F
FFD9
FFF2
000A
0028
FFFE
FFF2
0030
FFDB
FFC8
000B
FFF3
FFE6
0012
0006
FFF2
FFDF
0016
0011
FFFD
002F
FFE5
FFD9
FFEE
FFFF
0006
FFFA
0009
FFE0
0025
FFFE
001D
0009
000C
000F
000B
0010
0022
0005
0012
FFFE
0025
FFEF
002E
FFFF
FFDB
0003
FFEF
0016
FFEF
FFF5
FFD0
FFF4
FFC2
FFD7
0013
0014
000B
FFE7
FFFF
0000
FFE2
0026
0016
FFFA
0001
0005
FFCC
FFFA
FFEF
FFE6
FFF9
002E
0010
FFF1
000F
0024
0018
0002
FFEF
0012
000A
0017
0010
001B
FFF2
0022
0005
0035
FFEE
002C
0005
FFEF
FFF4
FFF8
000B
000D
FFF1
FFFF
0037
002C
000B
0001
0003
0010
FFE6
FFF9
FFD5
000A
0011
FFF4
0028
FFE1
FFDB
0006
001B
002B
FFF4
001C
FFFF
FFFC
0017
0011
FFD8
0026
0023
FFF0
000A
000D
0007
FFF2
FFEF
FFFF
001E
000E
FFF7
0014
FFB7
001D
FFD3
FFF7
FFE3
FFDF
001E
FFF4
0009
FFFF
000C
0002
FFDF
001A
FFF3
FFD8
FFF5
0026
0016
FFF7
FFF7
FFF8
0035
000A
000B
001A
0006
FFF9
FFFB
FFFE
FFFF
0013
0001
0013
FFFE
0002
FFCD
0017
0009
001A
FFB6
0035
FFFC
001C
FFE5
0010
FFE5
FFF0
0031
FFFB
0006
0016
000D
0004
0009
003E
FFFF
0005
001B
001C
001E
0010
FFE3
002A
FFE3
0008
FFED
FFFE
0008
0008
000B
0029
000C
FFFA
0019
001E
FFE1
000F
0012
FFF8
0023
FFFC
0003
FFFC
0000
FFE4
FFDB
0029
FFEA
FFE7
FFC9
FFF0
FFDE
002A
001A
FFEE
003A
0019
FFF8
FFC0
003B
FFDC
FFD6
001A
003E
0023
000E
000F
0016
0013
0007
0003
FFFE
FFED
FFF9
FFD5
FFFD
FFE7
FFE4
0005
0024
0018
FFD8
FFE7
0018
FFE7
FFFA
000E
FFE7
0003
FFDE
FFF1
0008
FFD7
000B
FFFF
000E
0006
0023
0003
FFF5
0003
000E
0001
0001
FFEE
FFEF
FFDC
002D
FFE0
FFEE
FFEE
0017
FFF8
0020
FFEF
0007
FFEB
0037
FFE2
0008
0010
000B
FFFB
FFFD
0001
FFFC
0019
0039
FFF2
FFDD
FFFE
0042
FFEB
002A
002B
FFF2
000F
002A
FFF6
FFFB
FFF1
FFE6
FFEF
FFE1
0001
FFEC
0006
FFD8
0008
0015
FFCD
000A
001F
FFE1
002B
000B
FFEE
FFFF
000E
0002
000E
FFE8
0004
FFDC
FFFD
FFE9
FFED
0020
001C
0010
FFE4
FFF8
001F
0004
003B
000A
0005
FFF8
0003
FFFC
0012
0018
FFEC
FFDE
FFD1
000D
FFE4
FFC9
000A
0040
0000
0015
0002
FFFD
0018
FFF9
0007
0008
FFEF
0019
FFFC
FFED
000E
FFE9
0001
0000
001C
000C
FFFF
0015
0024
000E
0000
FFDE
FFE5
FFF8
FFF0
FFFB
0001
000E
FFFE
000C
0002
FFCD
FFE8
FFFC
FFE1
000F
0027
001F
FFFB
0026
0004
FFF7
FFF0
FFF8
FFF6
0004
0004
0000
000B
001E
0018
FFDA
FFBF
0018
FFDD
FFFA
FFE2
FFD2
000E
0013
FFF1
FFBE
FFF2
000A
FFDA
0005
0000
000F
0003
FFE7
001F
FFFC
FFFF
FFE8
FFF5
FFE9
FFFC
002C
FFDD
FFD7
0026
FFFB
FFEF
001B
FFF0
002F
0011
FFF4
0037
FFF0
0013
0008
0021
0028
0001
FFED
000C
FFEF
0034
0003
FFF7
0005
FFDE
FFE7
001F
FFEF
FFE5
000E
001E
0012
0019
FFED
FFDC
0026
FFF8
FFFA
0022
000E
000C
0037
FFF0
0018
0001
0007
0027
000D
000E
001B
FFF7
FFEB
FFE5
FFCE
0035
FFE4
FFFA
FFF9
0008
0015
0016
FFF1
FFFC
0007
FFFA
0029
000D
0013
0011
001E
0005
FFDF
000A
FFEF
FFF2
000F
0020
0001
0008
002C
0006
0043
000E
FFD3
0013
000A
0021
0011
FFFC
FFE1
FFFB
FFEA
FFF1
000F
002B
000A
FFE1
000B
001F
FFF0
FFFD
0000
FFEC
0011
FFFD
000B
FFE9
FFF5
0012
FFF6
002C
FFF6
0006
0018
FFDC
FFD3
FFD9
0020
FFF2
0041
FFF2
0005
0027
0033
0035
001F
001A
000F
0014
FFF2
FFEB
0000
FFFC
FFF4
0012
0018
0002
0026
FFE3
FFFB
FFEE
FFD0
FFFE
FFFD
0027
0010
FFE6
002F
001F
000F
FFFA
FFE7
FFF6
001C
0030
0028
FFF3
FFE3
0004
FFD3
0008
FFFC
FFF4
FFD7
000D
FFF2
FFE2
FFB6
FFFF
002D
002B
FFF4
FFF1
000C
FFE6
0008
0014
001F
FFFD
FFFB
FFEA
FFEB
FFFA
0009
0017
FFEB
0026
FFF9
FFFF
FFED
FFC2
0017
0013
FFF9
0002
000D
FFD8
FFF2
0014
FFE0
0008
FFDD
000C
FFFF
FFD7
001E
FFED
FFEB
0005
001D
FFE6
0002
000B
0012
0005
FFF7
FFEB
0002
FFE5
FFB5
000B
0017
FFC4
FFE6
0010
0035
0001
FFED
FFFB
0023
FFEF
FFEC
FFF4
FFE8
0003
002A
0008
FFFA
FFF9
FFD8
0017
FFFE
FFFB
0052
0008
FFED
FFF5
001D
0003
FFDB
0018
FFEF
0030
001C
FFF5
0021
0002
0016
000C
FFEA
FFF0
001A
FFF7
FFF6
FFE8
000B
0035
FFE5
0001
0024
FFFE
000C
FFE5
000B
FFFB
0019
001E
0042
000F
0008
0005
FFF7
0009
FFF8
0004
0022
FFE6
001D
0022
FFFD
FFCA
FFF0
0021
FFFF
FFE6
FFF3
0016
000E
FFFA
FFF7
FFF6
FFE8
0029
FFF8
001F
0027
001A
FFF5
000A
FFFF
FFE9
0008
FFE2
001E
FFF4
0005
0007
FFF9
000F
FFF4
0016
FFDE
0003
0032
FFE6
FFEF
000D
0005
0009
000D
0010
001C
000A
FFFA
0011
0031
FFFD
FFE7
001C
FFFD
FFC8
0016
FFF2
FFFE
0008
0005
0012
FFF5
000D
FFF9
0013
0010
FFE8
001C
FFF2
0015
0009
002F
FFFA
FFF7
0000
FFF8
0014
FFD7
FFE5
FFE5
0018
002C
FFFD
FFFC
0002
001E
FFE8
0006
0019
000D
0005
001A
FFBB
0011
FFEF
FFD1
000D
0023
FFFC
0018
0029
0022
002A
0013
0002
FFD7
FFFA
FFEA
0038
FFFB
0003
000E
0001
002B
FFF0
0005
FFED
FFDE
FFF0
FFFF
FFF5
FFEE
FFDC
FFFE
FFD9
0013
0002
FFDB
FFF8
FFED
0008
0022
FFD0
0003
FFFC
0011
0005
FFED
FFF8
FFEC
001C
0001
0031
FFFE
FFEE
FFD9
FFD2
FFD7
0007
000D
FFD8
0017
FFF4
0004
0029
0017
FFF9
FFE9
FFC9
FFEE
FFFB
FFE7
FFFD
0002
FFFA
FFEF
0004
000B
FFE4
0024
FFFD
0000
0012
0006
0018
0007
FFF0
0009
FFE3
0003
FFFF
FFFB
FFFD
FFD0
FFF2
0002
0004
FFE6
0020
FFEA
0019
000B
FFEF
002D
FFE1
0018
001A
FFEF
0024
FFFA
0007
0007
FFFD
0015
0014
FFD3
0021
FFD5
001A
001D
FFE4
FFF5
FFE4
FFFA
FFF8
0014
0022
0024
FFF2
FFFB
FFD5
FFEB
0019
0029
FFE0
FFF1
FFFF
0007
FFEB
000B
FFF4
0000
000E
0000
FFF5
FFFD
FFFE
FFF7
FFF9
0029
000E
FFF8
0012
FFF7
001E
0009
FFFD
000B
FFD8
FFE3
FFE1
0004
002C
0039
0010
000D
FFD2
FFF2
FFEC
FFF0
FFFC
FFF4
FFCD
0013
FFE5
0006
0035
FFE8
FFBF
FFF9
001C
0032
FFE1
000D
FFF4
FFFD
0044
FFDA
0006
000C
001C
0003
0008
FFF6
0007
FFF7
0010
FFF7
000A
FFFF
001D
FFFF
FFD3
0020
FFE9
FFEF
FFF1
0023
FFC9
0050
001B
0006
FFFF
0007
000D
0011
000E
0002
FFFB
FFFC
FFFB
001D
000F
FFB5
0011
0005
0000
FFF6
001D
0018
FFEC
000A
FFE7
FFDD
FFF0
0016
0018
000D
0013
000D
FFF0
000B
0014
0013
001E
0012
0009
001B
FFFF
FFE9
FFFC
FFED
FFEF
FFFC
FFEC
FFF8
FFD0
0005
0000
FFEB
0011
0018
FFD7
FFEC
FFEC
FFE8
0015
FFFB
FFF9
FFCD
0010
FFE0
0002
0007
0023
FFDE
FFB3
0005
002E
0020
0005
FFF3
0015
FFE7
000C
000D
001B
0047
000A
FFF3
FFFF
FFD3
FFEE
FFF6
FFF3
0004
FFEB
001D
0000
0000
FFF8
0004
0015
FFEA
FFEF
FFF8
FFDE
FFEB
FFF4
0016
0007
0005
0016
FFFC
000A
FFFD
0007
FFF1
FFC2
FFFD
0024
0018
0019
0020
0002
0005
FFF0
FFF8
0010
001F
FFFC
FFF4
0000
000F
FFDB
FFC5
FFF2
FFE1
FFF3
FFFC
FFF4
0025
0008
0008
0010
FFE3
001B
FFFE
0011
FFE5
FFD8
0015
000A
FFE9
FFEA
001D
FFE2
002A
FFE9
0010
FFF8
000F
FFF2
FFFC
0001
FFE6
0013
FFF3
FFFA
FFE7
FFBE
FFFB
003E
0014
0000
FFF9
0001
000E
FFE2
001D
0012
0012
000B
0001
0011
000F
FFF7
FFF1
0003
0028
FFE0
FFDA
0004
0001
0004
0006
FFFA
0026
FFD7
FFEB
FFFD
FFD6
FFFB
002B
0001
0006
FFE0
FFF0
FFF6
FFF8
0021
000E
FFE4
0006
000D
001D
0028
FFE6
FFEB
FFE0
FFFA
000C
0019
FFFE
FFF8
0004
FFEB
0035
FFD7
0005
0034
0000
FFFB
FFF7
FFFB
0023
FFC7
0027
FFDC
FFF9
FFF5
000F
FFD7
000C
0034
FFDD
0005
FFEF
000B
0000
FFF0
000C
002E
FFFB
0012
FFDF
FFE8
000C
0026
0009
FFF8
0000
FFE0
000F
0017
FFF4
FFF4
0007
FFF5
FFFE
0036
FFFA
FFF7
FFEF
0013
FFFB
FFEF
0022
0024
FFF1
FFD0
001A
FFEE
0014
FFCE
0017
FFE1
0013
0000
FFE8
FFF6
0012
0003
000F
0033
FFD8
0029
0003
FFE9
FFDE
FFFB
0018
FFFD
0027
FFDB
0000
FFE0
0009
0017
FFF5
FFBD
0005
000B
000A
0020
FFE5
0011
001F
FFD2
0008
FFF3
FFFE
0009
FFF4
FFEF
0001
FFE4
FFE4
0011
FFE3
0011
000C
FFD4
FFEF
001F
FFE7
FFF4
000C
0014
FFFA
FFF1
0024
002D
0019
0002
FFEB
FFEB
000D
000B
0024
0011
FFDA
001B
FFE6
FFF6
0006
0033
0050
0010
FFFB
000E
0017
FFF8
002E
0006
000D
0011
000B
0015
FFF0
FFF2
FFE4
000B
0014
000C
002B
0000
0011
FFE4
FFF6
0012
0016
FFF8
FFFE
FFD9
FFF7
0017
000F
000D
0001
0000
FFEF
0012
000B
000D
FFF3
FFC9
001C
FFF4
FFEA
0012
FFF6
001B
0010
0011
FFDD
001F
0007
FFF7
0004
FFD3
000A
FFE6
FFDD
FFD9
001C
FFF0
0027
FFF2
FFD4
FFE3
0020
FFFC
FFF2
0004
000D
001D
0025
FFF7
FFDE
FFF5
0007
FFE7
FFE7
0009
FFFF
0001
FFED
FFFA
FFE8
0017
001B
FFD1
FFE8
FFDA
FFEF
FFFE
FFDB
FFE8
FFE6
0005
0002
FFEE
0005
FFF2
FFF9
002B
0022
FFDF
0015
0015
FFE3
0015
0027
FFE3
FFE9
001A
0007
000E
0009
000A
FFDE
001B
001E
FFFA
FFFF
FFD9
000D
000F
FFFE
001D
FFF7
000E
FFE6
FFFF
FFFC
0006
FFF7
FFFD
0015
FFF5
FFD7
002D
0023
FFDF
0012
FFF3
0007
0008
FFFA
FFEC
FFEE
FFE9
FFEB
FFFE
FFEE
0011
0026
FFF1
0006
000D
000C
0002
0013
000C
FFE0
0016
0017
FFEC
0001
0011
FFFB
001B
003D
FFEC
FFDD
0008
0012
FFFA
0025
FFDE
0012
FFF0
002C
0033
FFEC
FFF2
0016
FFF6
FFFF
0001
FFCF
0000
FFEE
FFF3
0025
FFE0
0015
FFF9
FFF9
0014
0009
000F
0019
FFF8
FFF0
FFE4
FFEB
004B
0020
FFDD
FFDE
000C
000E
000E
FFF9
FFFD
0008
0002
FFC7
FFFA
FFEA
0004
004C
0009
FFF8
0018
000C
000B
0010
0035
FFE3
000C
FFE8
000E
FFE8
FFF5
FFF8
0019
0018
FFE0
0001
FFEE
FFE0
FFFA
FFF8
003E
000B
FFDD
FFF2
001A
0035
FFD7
FFD0
0030
000A
FFEA
000E
FFBD
0000
0008
0018
FFE6
0002
FFE8
0007
FFE9
FFF6
FFE7
0011
0016
FFFA
0001
FFDB
FFF8
FFFF
0043
FFE4
0025
001A
0007
002D
000A
000A
FFFF
001F
001C
FFF0
FFDE
FFFB
FFEC
FFFE
0020
FFF4
FFFF
0001
0016
FFC6
FFF0
0005
001F
FFF3
FFD0
0010
FFF0
FFE2
FFF0
FFFB
FFF1
FFC8
0017
0021
0011
FFE3
FFFB
0000
000F
0011
FFED
0002
000C
0025
0012
0014
0002
0024
000A
FFEA
0024
0012
FFF5
FFF4
0008
000C
0005
0008
002C
001B
0005
0018
FFE6
000A
002E
FFFA
FFEA
FFEF
FFE4
FFEC
FFF7
FFDC
0000
0017
FFE9
0027
000D
001A
FFEF
0016
FFE4
0017
0004
000E
FFE2
FFE9
000F
FFE8
000C
FFDD
0016
FFE0
000E
0010
FFEE
000F
0007
FFF2
FFE6
FFCE
0009
FFD8
0002
FFF9
0011
FFF8
FFF8
0013
0009
0008
000C
FFD9
0013
0010
FFE6
FFFA
FFFF
FFFD
0009
0025
001C
FFDE
0010
0022
000A
001C
0034
001A
0006
001B
0004
0001
FFF7
0028
FFEB
0027
000D
FFDC
0009
FFCA
0010
0017
FFF1
0003
0032
FFF3
FFE5
0026
0032
0000
001A
0022
FFED
FFF4
0020
002B
000E
FFE9
0033
FFF2
FFF7
0009
0028
0016
000B
000C
0001
000E
FFBF
FFF8
0006
FFE3
000A
FFFB
002D
0028
