FFED
FFF8
0006
FFD4
FFFE
FFF4
0008
0007
FFEC
FFF3
FFFE
0000
FFF5
0002
FFFE
FFF4
0005
FFED
FFE9
0013
0001
0004
0000
000D
FFEE
0019
0015
FFFF
001A
001A
0011
000E
FFF7
000E
0007
FFF9
FFF9
000E
FFF1
FFF6
FFF8
FFEB
FFF3
FFEC
FFFD
0014
0004
0005
0009
FFED
0020
FFEE
FFEA
FFDC
FFFC
FFF5
FFEB
000B
0001
FFF3
FFE7
FFE0
FFE3
FFEF
FFDB
0003
FFF1
FFE0
FFF4
000C
FFFD
0006
0013
0015
FFFE
FFF4
0002
0001
0012
FFF8
0011
0014
0006
FFF4
FFFA
FFF7
0005
FFEB
0001
0003
FFE9
FFFC
0012
0001
FFFA
FFFF
FFFB
0005
FFDC
0008
000F
000C
0000
FFFB
0003
FFFB
FFEB
FFF6
FFE7
FFE9
000C
0005
FFEE
0009
0027
000C
0004
FFFF
0013
0005
FFF6
0008
FFEC
FFFC
000B
FFFE
FFF3
0005
0012
000A
FFF9
000A
FFF4
0005
0004
0007
0001
FFDD
FFF3
FFE8
FFF9
0006
0005
0000
FFF3
000C
0011
001D
FFFE
FFE4
FFED
0002
000D
FFED
0005
FFF5
0007
FFF6
0007
0000
FFFB
0007
0007
FFFE
FFFF
FFED
0007
0027
FFEC
FFE8
FFED
0001
FFFD
FFEC
001C
FFFE
FFFD
000E
FFEB
0005
FFED
0003
000D
FFEE
FFFE
FFEE
FFF8
FFF3
FFFE
FFFC
FFE8
FFFE
0011
001B
0005
FFF9
000B
FFF4
FFF9
0009
FFF8
0012
FFFC
FFF9
000B
0000
FFE1
0008
0006
FFF6
FFE9
FFEB
0005
0011
0002
0011
000E
FFFB
0003
000A
FFF4
0000
FFF1
FFFF
0013
FFF1
000E
0001
FFF7
0020
FFF9
FFF8
FFF7
0021
0000
0007
0012
0005
FFFA
FFF6
FFFF
0003
FFFB
FFF8
FFE9
001C
0009
FFF3
FFFD
0002
0009
0000
0004
FFDE
FFE8
FFFF
000C
0008
0009
000F
0014
0003
FFFE
FFF8
0000
FFF3
0000
0005
0014
FFFC
FFE7
0008
0010
FFF9
FFE6
0019
FFFB
FFFA
0010
0027
0007
0002
0004
FFF1
000C
FFF0
FFE7
001C
001C
0012
0011
FFFD
0008
0003
0001
FFF9
FFF5
FFF7
0024
FFFE
FFF0
0005
0012
0009
0004
FFF5
0005
0017
000C
FFF7
FFE8
000E
FFE9
FFFC
FFFA
0005
0004
FFEF
0001
FFFE
0017
FFF6
FFFD
FFFB
0010
0004
FFFC
FFF5
FFF6
0015
FFF0
FFDE
FFFA
0017
FFF8
002A
FFE5
FFD7
FFE9
0014
0013
0004
000F
FFEF
FFF4
FFE2
FFE9
FFFF
FFF2
FFF8
FFEB
FFFD
0012
0014
0018
FFF5
0000
0002
0000
000D
FFEC
0003
FFFA
FFF1
FFF4
0004
0001
FFF0
0014
000D
0004
FFF1
FFFD
FFFA
0005
FFF2
FFF0
000E
0009
000B
FFF4
FFF8
001C
FFF2
FFF8
FFE8
FFF2
FFEA
0009
FFFE
0004
FFED
FFFB
0008
0019
FFED
0013
0007
FFEA
0019
FFF6
FFF1
000F
FFFA
0022
000D
FFF5
FFFE
0013
FFFF
0000
FFF4
FFFF
0010
FFF5
0003
FFFD
0002
FFED
0023
FFF1
0004
FFF8
FFF1
0010
0004
0008
FFFE
FFF9
0006
FFF4
0002
0002
FFED
0019
FFFE
0000
FFED
0006
FFFD
0008
FFF1
FFFB
0006
FFF9
FFED
0001
0003
000F
FFF4
0005
FFFA
FFF9
FFFC
FFF8
0004
0003
FFF4
0002
FFFE
FFF2
000D
0011
0000
000A
FFFB
FFF3
FFFE
0022
0016
0009
FFE7
001E
FFF9
FFEC
0012
FFF5
FFF0
FFF6
FFF2
000C
0017
FFF5
FFEC
000A
FFF4
0008
FFE3
0013
0004
FFE3
0012
0008
0008
FFFF
FFF8
FFF9
FFEC
FFE1
FFFE
0010
0007
0016
FFE2
0000
0009
FFFD
0001
FFF2
FFF9
0006
0001
FFFE
0003
0003
001C
0010
0005
0004
FFEA
FFF5
000E
0004
FFF6
FFFC
FFF5
0003
000C
FFEF
0007
FFFB
FFFC
0000
FFF3
0005
0011
0006
000B
0013
0016
FFEC
FFF4
FFEB
0009
0015
000C
0002
FFED
FFFC
FFFB
FFE0
0001
000C
FFEE
FFF6
0021
FFEE
FFF6
0000
FFE6
000F
000B
FFFF
FFEB
FFFE
FFDC
FFF3
FFFF
0001
FFDF
0000
000A
000C
000D
000A
FFEA
0007
001D
0010
0005
FFE5
FFFC
0011
0009
0010
0023
0004
FFF2
0009
000E
0003
0002
FFFF
001E
FFEE
FFFD
0012
FFFA
000F
FFF6
0011
0004
000C
FFDC
FFF1
FFF8
FFF5
FFF5
000D
FFF2
FFF3
FFFE
FFFB
0000
0023
FFFB
FFF6
FFED
FFE8
001C
0013
FFEE
FFFE
FFE7
0006
FFED
FFF1
0000
0010
FFEF
FFFE
0001
0012
FFFF
FFFE
FFFA
0003
0000
FFFD
FFEA
000A
FFE7
FFF6
0007
FFEB
0007
FFFE
FFE0
FFF1
FFFA
0008
FFF3
FFF5
000D
000F
0007
FFFD
0010
FFFB
0008
FFF1
001C
FFF6
FFF7
0006
0004
000F
001E
FFF1
FFFB
000D
001E
000B
001C
001C
FFF5
FFEB
FFDA
0008
FFF7
FFEC
000A
FFFB
0008
0016
0011
FFCC
FFFF
FFFE
FFD2
0005
FFEB
FFFD
FFE2
FFF9
FFF7
0004
000B
FFEF
000E
001B
0015
0006
0024
FFFF
0013
000A
0009
0006
0001
FFF4
FFFC
0011
0014
0015
000F
0008
FFFB
001F
FFF9
0005
001A
FFF9
FFF8
FFF6
FFFB
FFF3
0027
000B
000B
000F
0004
0001
FFE0
000F
FFFD
0006
000C
FFF3
0008
0009
0015
0000
FFF9
0007
FFF8
0002
FFFA
0009
FFF9
FFF5
0000
FFF7
FFF3
FFF5
001A
0011
0008
0005
0000
0010
FFF6
FFF6
0004
FFE9
0004
FFD9
0017
FFF5
0007
FFEC
0022
FFE8
0003
FFF5
0002
0023
FFF1
000F
0004
0005
FFE6
0008
0002
FFF7
FFE9
0002
0001
FFEE
000B
0001
000D
FFEB
FFED
FFF7
FFEF
0009
FFFF
FFF8
FFFA
0003
0008
0006
000D
000D
FFF6
FFF4
FFFA
0004
001C
0005
001C
0022
FFFF
FFFF
FFEA
0013
FFF9
0006
000B
000B
0000
0000
FFF3
FFFA
FFEF
0004
0007
FFF4
FFF4
000E
0007
0001
0010
0012
0009
0003
FFFE
0013
FFF6
0004
0017
000D
0006
0015
0007
0011
0006
FFE3
0016
FFEF
0006
0008
0008
0002
FFF6
FFF1
FFFB
0001
000A
FFF4
001A
FFEE
0007
FFEE
FFF6
FFFC
FFF9
FFEE
0002
0022
001F
000A
FFEB
FFF1
FFFF
FFFC
0007
FFF1
FFED
FFF3
FFF3
FFFA
FFEA
000D
FFDA
0010
001B
0011
0008
0009
0006
0010
0004
FFFB
FFEB
FFF4
000C
001D
000B
0018
FFF8
FFF2
0002
0009
000E
000B
0006
000E
FFF2
FFFA
0001
0015
FFFB
000C
0015
FFE5
000C
FFF3
0011
FFF4
000E
0003
0006
000F
FFF9
FFF0
0010
0005
000D
0016
0009
FFF2
FFF2
0003
FFFE
000A
000E
0007
FFEC
FFE6
0012
0001
0007
0005
FFF6
0002
0006
0007
FFFE
FFEC
FFF3
0001
0008
001E
FFE8
0016
0003
FFF2
0006
000D
FFFA
0007
0002
001D
FFE9
0004
0003
FFF7
0011
FFE4
0011
0013
FFF4
FFE9
FFF3
0007
FFFD
FFF9
0012
000E
FFFE
000C
FFF3
000A
FFEC
0000
001D
0002
0003
FFF8
0006
FFFD
0016
0000
FFFD
FFF7
FFFE
FFF0
0022
0002
0014
FFF3
FFFA
FFFD
0007
0003
FFF2
FFFE
FFFA
000C
000A
FFD7
0001
FFEC
FFDF
FFF7
0005
0009
0000
0013
0013
0003
0025
000C
FFF5
FFF8
0005
0003
000E
FFF5
0024
0002
FFED
FFFF
FFF7
003B
001D
0008
FFEB
FFED
FFFA
000E
FFF8
0016
0006
0013
0001
0000
FFFF
FFEB
FFE9
FFFE
FFFB
0001
000C
FFFB
000F
0000
0001
FFF3
FFF3
FFEC
FFFD
0000
0002
0007
000B
000D
0005
FFF9
0014
0010
FFEE
FFE4
FFF7
FFEC
FFF7
0000
FFFD
FFFF
000F
FFFC
FFFC
0009
FFFC
0007
0000
FFFD
000B
FFF2
FFF6
0015
FFF7
000A
FFF4
FFF4
0005
FFE9
001A
0015
0006
FFF7
0007
FFF7
0005
FFFA
0001
FFEE
FFEF
0011
FFF9
0011
FFFB
FFFD
FFFE
0002
000F
000E
FFE8
000C
FFEF
000C
FFF4
FFF2
0025
FFF6
000E
FFF9
0010
000C
0013
FFEA
0010
FFEB
0004
0013
000C
0015
0009
FFF4
0006
000A
FFF9
0006
FFF9
0012
FFFE
FFF5
FFF6
FFF0
FFF2
000B
FFFD
FFEE
FFF0
0016
0011
000F
FFFB
FFF8
000D
0001
0004
FFF6
000A
FFF3
0013
001D
FFED
FFE9
0008
000B
FFF5
001D
FFF8
0020
FFFD
000E
0010
FFFD
FFFD
0002
0016
FFEC
FFFC
FFF2
FFEE
FFF7
FFFD
FFF4
FFF4
001D
FFFA
FFED
FFFE
000F
FFFD
0000
000B
0008
0014
FFFA
FFED
001A
0008
FFE7
0001
0000
0002
FFF2
0009
001F
000C
FFFC
0029
0008
0017
000D
FFE6
0017
FFFD
000D
0019
FFF6
000F
000B
0015
FFE9
FFFD
0012
000E
001B
FFFF
FFF0
FFEF
0020
FFF1
FFFC
0004
001D
0005
0006
0012
FFF0
0001
0011
0002
FFF6
FFF3
FFFB
0020
FFF3
000F
0002
0023
0017
000C
FFFE
FFF6
0013
0013
000F
0006
FFF8
0028
FFFD
001C
FFFB
0008
0001
0014
0010
000D
FFED
FFF1
FFF8
FFEB
FFFE
0004
001D
FFF5
FFF8
FFEE
0005
0002
0006
001C
FFFC
0001
0000
FFF8
0001
0003
FFF0
FFFA
0003
0005
001D
0004
0013
0019
000D
FFEA
FFF9
FFFA
0002
FFE9
000F
0006
FFFD
FFF9
0004
0018
002E
FFE6
FFF1
0004
0016
FFF9
0005
FFF2
FFE6
000C
0008
FFFD
FFFA
FFE4
FFFC
FFFD
FFFD
FFEF
FFF8
0009
0007
FFFD
0006
FFF2
FFFC
FFF3
FFE7
0019
FFE9
000A
0015
0001
FFEE
FFF5
FFF5
0007
FFEE
FFEC
000B
0003
0003
FFFD
FFF1
FFFA
FFFC
FFF1
FFFB
FFF9
0008
0004
0010
FFE3
FFE2
FFFD
000A
0007
FFF9
FFF6
0012
FFF0
0009
FFE8
000B
FFF7
0004
FFFF
0005
001A
FFFA
0013
FFFC
FFF3
FFF3
0006
0005
FFEE
0004
0016
0019
FFE3
FFF1
0007
FFF0
0006
FFFD
0009
0004
FFF1
FFF6
0005
001D
0001
FFF7
FFEB
0012
000C
FFF6
0000
0008
0005
0007
0008
FFFA
FFF7
0004
0008
0007
0007
FFF8
0000
FFF7
0001
FFFE
0002
FFF8
0006
0002
0019
FFF3
FFFE
000C
FFFE
0028
000A
FFFC
FFF0
000B
FFF5
FFED
0003
0034
FFFD
0009
FFF9
000B
FFF1
FFED
000E
000D
000E
001D
FFFF
FFFF
000E
000E
FFFB
0009
0021
FFF7
0002
FFF8
000C
FFFE
0009
0001
FFF5
FFEE
0009
FFF0
FFF3
0004
0000
000E
0003
FFE1
0013
0011
002F
0000
FFFA
0006
FFF5
FFF3
000E
000A
0004
0009
FFFF
FFFC
FFFF
FFEF
000E
FFF4
FFEF
0007
FFFC
FFFE
FFFC
000B
0002
0007
FFFA
FFE9
000B
0011
FFE5
0015
001A
FFF3
0004
FFE0
FFF9
0008
FFE7
FFF1
FFFC
FFF5
FFF8
0005
FFF7
000A
000C
0007
0017
0011
FFE9
0008
001C
0003
FFE7
0004
0007
0019
000B
FFF1
FFEA
FFEF
000F
FFE9
0009
FFED
FFFA
000E
FFFC
FFF2
FFF4
FFFD
0007
0001
FFF7
FFFC
0005
000A
FFF2
000A
000E
0003
FFF6
000D
001A
FFFC
FFF7
FFF8
0002
0001
0015
FFE6
FFF4
0008
FFF8
0006
FFEC
0008
0008
000B
0014
FFFF
0011
0004
FFE2
0000
0006
001E
FFF5
0000
0011
0004
FFF8
FFE6
000B
FFFB
0005
FFE8
0011
FFF4
FFF9
000C
0003
FFE0
FFF4
0007
0001
0026
FFE2
0016
0005
0008
000B
0004
FFF3
0010
0017
FFF4
FFF1
FFD6
0001
FFFC
FFEF
000B
FFF4
FFF6
000B
0000
0011
FFE0
0002
FFE5
0003
0000
FFFA
FFFC
000E
FFE1
FFF5
FFF5
001D
FFF9
FFF3
FFEC
FFF5
0005
000E
000D
FFFB
000C
FFF5
0005
FFFE
FFDA
FFF8
0002
0007
FFE6
000A
0009
FFE1
FFED
0003
0007
000A
FFF7
0002
0013
FFE8
FFFA
001B
000F
001A
FFF8
FFF3
0008
0007
FFFD
FFF9
FFF5
FFE6
0009
FFEF
FFF4
0012
0009
0000
FFF6
0015
0004
000D
FFF3
0001
0000
0015
0000
FFED
000D
FFF9
FFF9
0002
FFFC
000E
000F
0002
FFFD
FFE6
FFED
FFFB
0005
FFF9
0006
000F
0006
FFFB
000D
001B
000D
FFEA
FFE9
FFFE
FFEE
0005
FFFB
FFF0
FFEF
FFEE
FFFF
FFF5
0000
FFF4
FFEF
0002
000C
0004
0007
FFFE
FFF3
0001
FFF5
FFFB
001D
0010
FFEA
FFF9
000E
0006
0009
000A
0017
FFEC
0008
FFEF
000A
FFFE
0003
0009
0004
0004
0016
0015
FFF2
0014
FFF5
FFEF
FFF1
FFF5
000C
000B
FFDE
FFFD
0007
FFFF
0005
000C
0006
001D
FFE6
0005
FFF1
FFF8
0013
000A
0018
FFF6
FFED
000B
0001
FFFD
000A
FFF9
FFF6
FFFF
0004
FFF4
FFFD
0005
FFFE
0008
FFEF
FFFA
000E
FFFA
FFF5
0010
0009
FFEB
0004
FFFE
0010
FFF3
0002
0017
0001
FFEF
001D
0005
0008
000F
0002
FFF5
FFED
0013
FFFB
FFF0
001A
FFF3
001A
FFE2
0005
000C
FFF3
000D
0000
FFF6
FFF4
0001
FFF6
FFE7
FFE0
FFF7
FFFE
0016
FFF0
000B
0008
000A
FFF9
000E
FFF6
FFFA
FFF5
FFF7
FFF7
FFEB
FFEB
0010
FFF0
FFFB
0000
0009
0002
FFF3
0005
000E
FFF9
0005
FFFC
000A
FFFA
0005
0003
FFE8
0009
FFFA
0006
FFF4
000D
FFF8
FFF7
0010
FFFD
0006
0001
FFFB
0003
FFF0
000C
001B
0011
001F
FFED
FFFA
FFE5
0009
0002
FFF4
FFF6
FFF4
FFFE
0009
0007
FFF1
0017
000A
FFFE
0006
0010
FFF5
0011
FFFE
FFEE
FFFF
FFF1
0000
000F
0005
FFFB
0003
FFF2
0008
FFFD
FFE5
FFFE
FFEF
0022
FFFA
000C
FFED
FFFA
0011
FFF6
0001
FFF6
0014
0000
FFFE
FFF5
0009
0017
FFFD
FFFD
FFFF
000B
FFFF
0010
FFF1
FFF3
0000
FFF9
FFE9
FFE9
FFFE
0004
000D
FFFE
FFEB
0016
FFF6
0003
0007
0005
0009
0006
FFED
FFFB
FFF8
0024
FFF6
001F
0010
000B
0008
FFFC
FFF6
0006
0003
0001
0014
0006
FFE6
FFF2
FFF5
0010
000B
FFF8
FFF6
0002
001A
0010
FFFE
FFF0
FFE3
FFFE
0016
FFF0
FFFB
0015
FFF7
000E
FFED
FFE4
001D
FFFE
0004
FFE6
0024
FFF2
FFF4
FFF6
0006
FFFB
0011
FFF3
FFF3
FFEA
0012
0007
FFF7
FFF1
000F
000E
FFF1
000B
0000
0010
000C
FFE9
0003
0010
FFF6
0027
000E
FFEC
FFEE
FFEB
FFFC
FFE3
0004
FFEF
FFF7
0008
FFEA
FFF1
0006
FFFA
0009
FFDD
FFE0
000C
0000
000D
0008
FFFF
0004
000E
000C
FFFD
000C
FFFA
0004
FFF7
FFE5
FFFD
0000
FFF3
FFFC
0006
FFF9
000D
0014
000C
FFEC
FFE5
0003
FFF2
FFFF
000E
FFFF
FFEF
0003
FFE9
FFFC
0007
0004
FFFD
000C
0006
FFEA
0006
000D
0021
0005
0000
0000
0003
FFF1
FFF2
FFEE
FFFE
FFFE
FFEB
001D
FFEB
FFED
FFF4
FFED
0012
0007
FFEF
FFFF
0003
FFFB
0006
FFF4
FFEA
0001
FFE8
FFE7
0006
FFF7
0006
0000
0000
FFED
FFDF
FFFA
FFF1
FFF6
0019
0003
000A
FFEF
0016
0019
FFF4
FFEE
0002
0008
FFF6
0014
FFF1
000E
0013
FFFE
0008
FFE4
FFDF
0000
001A
001D
FFDF
0006
0005
FFFB
FFFF
FFF3
0018
FFFA
FFF4
FFFA
FFEF
0010
0001
000D
FFFB
FFF2
000B
0000
FFF0
0016
FFF4
000B
FFFE
FFF3
FFFB
000A
FFFE
FFF7
FFF6
FFF7
FFFB
0018
0003
FFF9
FFFC
FFFB
FFF9
FFF9
FFF8
FFDD
FFF0
FFFE
FFE1
0006
FFF6
FFF1
FFF5
FFFA
0022
FFEE
FFF2
FFEF
0007
0002
FFF3
FFF4
FFEB
FFF5
FFEA
FFFB
FFED
0007
0014
FFFF
0005
0005
FFFB
FFEE
001C
000B
0005
FFE6
0018
FFDE
FFE9
FFF9
FFF9
FFDE
0002
0007
0006
0003
0012
FFF5
0012
000C
0007
FFEE
FFFC
0006
FFEC
0007
0015
0012
0019
FFEF
FFFB
FFE4
0010
0010
0015
FFF7
0004
0013
FFFB
0016
FFE2
FFEB
0012
0009
FFF6
000D
FFFC
0003
0013
0001
000E
000B
000A
FFF2
FFF8
FFED
FFFB
0000
0006
FFFB
000A
000E
FFF8
FFFC
000A
0003
FFFA
FFF9
FFF0
FFF1
FFF7
001C
FFEC
FFFE
0012
000C
0013
000B
0035
000F
FFF1
FFFD
FFFD
0002
FFF8
FFF8
FFF5
FFF4
0013
FFDE
0011
0005
FFF1
000B
FFFC
FFE4
FFED
000F
0003
000E
FFF8
0003
0001
FFE6
FFE9
000C
0004
FFFA
0004
FFE4
FFD8
FFEC
000B
000D
0005
0013
FFF8
FFF4
0009
0011
FFDF
000A
FFF1
0000
FFDB
000C
FFFF
FFF0
0002
0007
FFF5
FFFA
0001
0013
FFFE
0004
0006
FFEB
FFFA
0021
0008
0008
000E
FFFC
FFF9
001D
0011
FFF4
FFF2
0004
0009
FFED
0018
000A
000D
0011
FFE3
0006
0019
0000
FFF3
FFF9
FFF0
FFEF
0007
0002
0007
0012
FFD8
0003
0005
FFF6
0000
001F
0007
0010
FFF6
0000
FFF4
FFF1
FFF7
001A
0004
FFFB
0005
0004
0019
0013
0004
FFFC
FFD0
FFF6
001B
0015
FFF7
FFFB
001F
000C
0009
FFF2
000D
000A
0004
FFFD
0006
FFFB
000D
FFFA
0008
FFFE
0016
0008
000F
FFFA
001A
0003
000D
000D
FFF4
FFEE
0004
FFFF
FFED
0009
0003
FFD7
000E
0023
FFFA
FFD9
0007
0012
0001
0020
0003
000D
0003
FFF5
0015
0000
0005
000A
0013
FFF2
0004
FFFE
0005
FFF2
0010
0004
FFED
FFEC
FFFA
0006
0001
0008
FFF2
0006
0004
FFE5
FFF0
FFF4
FFEF
FFF9
FFF2
FFE0
FFFA
0007
FFF5
001E
0005
0023
0009
FFF4
0003
0002
0006
0018
FFF6
FFFF
FFE3
0005
FFFA
0001
0004
FFF2
FFF7
000B
FFD4
0007
FFF6
FFFB
0000
FFF5
0003
0016
0004
FFF9
0008
FFEA
0004
FFF6
FFEA
000F
FFF6
0010
0023
FFF0
0001
FFCD
002B
000B
000E
FFF5
000F
0003
FFFA
FFF0
FFEF
0004
000C
000B
001B
FFF1
FFE8
0012
0004
000B
000F
FFF1
FFFC
0003
000A
0027
0004
0014
0017
FFF8
0000
FFF5
FFF3
000B
0016
FFF9
0005
FFE0
0024
0019
FFFF
0022
FFEE
FFFC
0008
FFE6
0004
FFF5
FFFC
0009
000C
0000
FFF9
FFE9
FFFC
FFFC
0000
000C
0001
FFF4
0012
000F
FFEF
000E
000C
FFEF
FFF3
FFFB
FFF8
0009
FFE9
FFF8
0009
FFEE
0010
FFFB
FFFA
0002
0012
FFE8
FFF5
0001
FFF9
FFF5
000D
0007
0008
FFF0
FFFD
FFD3
0004
FFFA
FFFC
FFF6
0007
0000
FFEF
FFE5
002B
0006
FFE7
0005
FFF9
0004
FFFB
000C
FFFB
FFF0
FFF3
FFFC
001A
0004
0003
000C
000F
002A
000E
FFFA
FFE8
0011
0006
0011
0007
0021
FFE9
000F
0011
0000
0010
FFF5
0005
FFF8
0008
FFF7
FFEC
FFEF
001C
0004
001F
FFFE
0009
0007
000D
000B
FFFD
FFFF
0004
FFF4
FFEF
FFF6
0014
0003
FFFD
FFE6
FFFB
000A
FFF5
FFF3
FFF9
0012
FFFB
0012
FFF4
0005
FFF4
0015
000C
FFE1
FFFC
000E
0006
0011
FFEF
0030
0007
FFF6
FFF8
0000
000F
000C
FFFB
0007
000B
FFF1
0000
FFD4
0003
001D
0006
FFFD
FFFA
0008
000B
FFFF
FFF0
FFEB
FFEE
FFFB
FFEE
000C
0005
0014
000F
0006
000B
0000
FFFE
FFF8
0001
FFF2
FFEA
FFFA
000B
0004
FFFF
FFF9
FFFD
000A
FFFA
000A
FFF2
0010
FFEC
000B
0009
0003
0006
0003
FFFA
FFF5
000A
0007
0003
FFFE
0006
FFFC
0018
FFF0
0001
FFEC
0000
0019
0005
0011
FFFD
FFEB
FFEC
FFEF
0013
0018
FFF1
FFF7
0019
FFEB
FFF0
000F
0013
0006
FFFC
FFF8
001D
FFF1
000B
FFF4
000E
0007
FFF8
FFE4
0012
0004
0002
0016
FFEE
0003
FFFD
000C
0015
FFFB
FFF9
FFEA
0008
0008
FFEC
000D
0010
0027
FFF3
FFE8
0011
0017
0014
0009
FFE3
FFEF
FFF8
FFFF
FFDD
FFEC
000F
0002
FFF2
0010
FFFC
FFFA
0009
FFEF
001A
FFFA
FFE8
0010
001C
0002
0006
FFE9
0008
FFFF
FFF5
0007
0001
FFFB
FFFF
FFFF
0003
0007
FFDA
0000
FFED
0013
FFE9
FFEF
FFFD
001A
FFF8
002A
0006
001D
0005
0009
FFF9
FFF9
FFEF
001B
0000
0014
0007
0006
FFFC
0004
0006
FFEB
000D
0018
FFF2
FFF6
FFFD
0014
FFFE
FFF6
FFF3
0010
0015
FFE0
FFED
000B
FFEB
0012
001F
FFE9
FFFB
FFFA
0002
FFEF
FFD6
000A
0008
0008
FFF5
FFF2
000E
FFEF
FFF0
FFF6
0018
FFF7
0003
0009
FFEE
FFEB
000C
0010
FFF4
FFF9
0006
FFF3
0014
FFFF
000F
0013
FFED
0008
FFEC
FFFC
0008
0002
000D
FFFC
000C
FFFE
FFF9
FFF7
FFE8
FFF0
FFF9
0007
0003
0008
000E
FFF1
FFF5
000D
0009
0005
0003
000B
0007
0011
FFFB
0013
FFE9
000F
0003
FFFE
FFEE
FFF4
FFF6
FFE4
FFF9
FFF5
FFFB
0004
0009
0006
FFE5
FFFA
000D
0002
0026
000A
FFF8
0002
FFF8
FFFB
FFF4
FFED
FFED
0008
0002
FFEF
0020
FFEC
FFEA
FFEC
0003
FFE3
0009
0000
FFFD
0000
0005
0002
FFF5
FFFF
FFF9
FFEF
001D
0013
000F
0006
0004
FFDB
FFF0
0007
000B
FFFC
000F
0003
0005
0014
000F
0017
0006
FFF6
FFFD
0013
0005
FFEB
FFF5
0005
FFFD
0007
FFEC
000D
0011
FFFE
000E
0005
001F
0000
FFFC
000E
FFF9
FFF1
FFFD
FFEF
000B
FFF0
000E
FFF6
0003
FFF1
0015
0005
FFEF
0011
0002
FFE8
FFF9
0017
0009
0003
0006
0000
0008
0006
0007
FFFF
0002
001C
FFE1
FFFC
FFE3
000A
FFFB
0002
0009
0005
FFED
0008
FFE1
000D
FFE6
FFFA
0014
0008
0007
FFFA
0008
000C
0016
FFF1
0000
0000
0012
FFFB
FFF9
FFFF
000F
FFF4
0006
0010
000D
FFF3
FFF3
000D
0000
0018
FFFB
FFF5
000E
000A
FFF5
FFF1
0008
FFFD
0019
FFF3
001F
0003
0007
FFF7
FFF6
0007
FFFC
0002
0025
FFF3
0003
FFF4
FFE8
FFEA
0011
FFFF
0003
FFEC
0003
0013
0012
000E
FFF4
000D
000B
000B
FFF3
FFFB
FFF1
000C
FFF1
0018
0001
0005
0004
FFFD
0014
FFF9
FFFE
FFE3
0006
0001
FFFB
FFFC
FFEA
FFE7
0020
0003
FFE4
0001
000D
FFF5
0000
0011
001A
000E
FFFF
FFF8
0007
0008
000A
000E
000B
0001
0009
0001
000C
FFFA
FFFD
0012
FFF2
FFFA
FFE6
FFFB
FFF1
FFFA
000C
0000
0017
FFF2
0020
000D
FFE9
0014
0001
FFE2
000D
FFFA
0019
FFEC
000A
0005
0016
FFF8
FFEF
0005
FFF6
FFFE
FFF2
FFFD
0005
FFF1
FFF2
FFF3
FFF0
FFF3
0009
0009
0015
000F
FFFE
0005
FFFD
0015
000B
0002
FFFA
FFFE
FFE6
000D
0007
000A
FFF1
FFE9
FFF5
0006
0009
FFF7
000D
FFFE
FFF5
FFFB
FFFF
0004
FFF7
FFFF
FFFB
000A
FFF7
FFF5
000C
FFFE
FFE6
0000
0002
FFEF
0022
FFF7
FFF8
FFFD
0008
FFFB
0029
0028
0009
001B
0009
0001
0003
FFEA
0020
000D
000A
FFF5
FFEB
001F
0000
FFFC
FFFE
0014
0006
0001
FFFF
0009
FFF1
FFFB
FFED
0006
FFE4
001A
FFFF
001A
FFF7
000B
0003
FFF4
FFF5
0002
FFFB
0003
000E
FFF9
0009
0011
FFF5
FFF8
FFFC
FFE7
001E
FFF4
FFF2
0000
0019
FFF0
0012
FFFD
FFF4
FFFE
001E
FFEF
0023
0012
FFF1
FFF8
FFEF
000D
0007
FFEA
000B
000A
0017
0008
FFE4
FFFF
FFF4
0002
0000
FFF3
FFFA
FFF5
FFFD
001F
FFF0
FFF8
FFED
001C
0010
001C
FFF0
0011
FFF6
FFFC
0004
FFF0
FFF6
FFEB
000B
FFF8
0017
0010
0005
0010
FFF9
000E
0002
FFF7
FFF4
FFE3
0001
0000
0005
0003
0011
0010
FFF9
0005
0018
0020
FFF4
0008
000E
FFE3
FFE9
FFF6
FFFA
FFEC
0011
0009
000F
0003
FFEF
0014
FFEA
0018
FFF4
000F
FFFB
FFFC
000C
0009
0008
FFFA
0021
FFFE
FFE7
000E
000A
FFF8
FFFB
000B
0007
0010
001E
FFEE
0008
FFFA
FFE3
000D
000D
000C
FFD7
0009
0028
0003
001C
FFE7
FFFC
001C
FFEC
FFFF
FFF9
FFFC
FFFF
0012
FFF2
001D
0002
FFF2
FFEB
FFEE
FFED
0000
FFF8
FFFD
0011
0003
0001
FFFD
FFFC
FFF8
000E
FFF8
0000
0011
0010
0011
FFEC
0012
0014
FFE8
0001
FFFF
0016
001C
0009
0007
0015
0018
0016
0001
0009
0004
0004
0016
FFD9
0000
000C
FFF3
FFE5
FFF9
FFD4
0004
FFFD
FFF5
FFE4
0010
000C
0009
FFFA
FFF2
FFFD
0000
0008
0008
FFFA
0003
0019
FFFF
0005
0006
0008
FFED
000D
0005
FFF8
0007
0005
0007
FFE9
FFF7
FFEC
FFF9
FFE1
0002
0017
FFF5
0013
FFDF
0015
0013
FFDA
FFF3
FFF7
0003
0027
000E
FFF9
000D
FFFC
000A
FFEE
FFFE
0002
0003
FFFF
FFF7
FFED
0002
FFF2
FFFC
000F
FFFB
FFFC
000D
000A
FFE2
0005
FFFF
FFF1
000E
FFF7
0001
0007
FFFE
FFFC
FFF1
FFF2
FFF9
FFFF
FFF8
0014
000D
0014
FFFD
0009
FFF2
0003
000E
FFF3
000C
0003
FFE4
FFF7
0013
0017
001B
0002
FFEF
0016
FFFA
FFE9
FFDF
FFFC
FFED
0002
0004
FFFB
FFF1
FFF3
0017
0010
FFE2
FFF1
FFEB
0006
FFF9
0009
FFF6
FFF2
FFF9
0000
FFE7
FFF5
FFE5
0002
FFF1
FFEB
0008
FFF2
FFFC
0000
001B
FFF4
0006
FFF0
FFD8
0004
0002
0023
000B
FFF2
FFF6
FFF7
0003
FFFA
FFF9
0002
0006
000A
FFFE
FFE2
0021
FFFF
0006
0002
0013
FFF9
0010
FFF7
0003
FFF3
0001
FFF9
FFEC
0015
0018
0002
FFFC
FFFD
0013
0017
FFFA
000E
0005
000B
FFE4
000A
0001
0004
001B
001C
FFEC
001B
0002
000B
FFF2
FFFE
0000
0011
FFED
FFF6
FFFB
000A
FFF2
0015
FFFD
001A
FFFF
FFFD
FFEF
FFEB
0000
000B
FFFD
FFFD
0010
FFEA
FFF8
0020
0016
FFDF
0003
FFF9
FFF4
FFF1
0018
000C
000E
0011
0002
FFF4
FFF0
0004
FFF9
000E
FFE0
000E
0013
FFE7
FFFA
0012
FFE3
FFE8
FFF3
FFFA
FFF7
FFF9
0001
000B
0006
0013
000D
0025
000B
FFF8
0003
001E
0016
0001
0003
FFF7
0002
FFFC
FFF5
FFEA
0014
0008
000C
0006
FFE6
002B
FFF7
0009
000F
0011
FFE3
0033
0003
FFFB
0007
FFE9
FFF1
000B
FFEC
FFED
FFE3
0019
000B
FFFE
0004
FFF3
FFE9
FFEB
FFFB
FFF4
0008
FFF8
0003
000B
FFFC
FFF8
FFE4
000A
0002
FFF1
FFFB
0006
000E
0008
FFEE
0005
FFEA
0004
FFFC
FFF6
0010
000B
FFFB
000F
0009
FFFB
FFE5
000B
FFFE
000B
FFFE
0008
0000
FFFE
FFFA
0009
0006
FFEA
FFEA
0015
FFEC
0009
0017
FFFC
FFFD
0011
FFEF
000A
000D
0000
0009
0000
FFF1
001A
000B
FFF2
0017
FFFA
FFFC
000A
0006
000A
FFF8
0008
FFF3
001B
FFED
000B
0007
0010
FFF8
0004
FFF4
FFFA
FFF7
FFEF
0014
FFF2
FFE4
FFFF
FFF1
0003
0001
0005
0007
FFF7
FFFC
0005
0000
FFFF
FFF8
FFFD
0002
0006
0012
0005
FFFE
0001
FFEE
0001
FFFB
0009
000F
000B
0018
0000
FFFA
0008
FFF2
000D
FFF9
FFF8
000E
0011
001E
0001
FFFB
FFF9
FFF5
FFFA
0004
0007
FFEF
FFEA
FFE8
FFDE
0011
0012
FFFC
0007
000D
FFF9
FFDB
FFF6
FFEC
FFEF
FFFA
0013
0005
FFFD
0000
0019
0009
FFFD
FFF4
000A
000E
FFF9
FFFD
0014
0014
FFE5
0008
FFE7
0000
0002
FFF9
0002
000A
0002
0010
0009
FFF6
FFFC
000C
0000
0010
FFE5
FFF5
0017
FFF7
FFF3
FFF0
FFF9
0000
0009
0016
0008
0006
0003
FFEA
FFED
0003
0020
FFF8
FFF1
0027
FFF8
FFFF
FFE1
FFFB
0016
FFF6
0019
FFED
FFF7
FFFB
FFF9
0000
000E
FFFE
000D
001C
000C
FFE1
000B
0010
0003
0000
000A
0018
FFFF
000B
FFF7
FFF6
0006
000C
0007
0002
0009
FFFB
FFFC
0005
0004
000C
001D
0008
FFF3
0017
0000
000A
FFEE
FFF3
FFFF
FFFB
0013
000C
FFFC
000B
0003
FFFE
FFFE
FFF7
000D
FFFC
0014
0007
0004
FFF1
000E
0008
FFFA
FFE3
000C
0020
FFF9
0014
0013
FFF2
000F
0017
FFFF
000F
FFFB
0018
FFF2
FFF8
0005
FFEB
0005
FFF8
0002
0012
FFFD
0018
FFF9
FFF1
FFE1
0003
0009
001B
FFE9
FFFE
FFEC
FFF0
0002
FFF7
FFED
0010
000A
000D
FFF8
000F
FFFB
000D
FFED
0005
FFFC
000C
FFE7
FFFC
FFFD
FFD9
0015
0019
FFE6
0003
FFFD
000B
000F
FFFC
0007
FFDC
0014
0008
FFF2
0008
000B
FFEC
0014
FFFB
FFF4
0001
0002
000D
0000
0021
0001
FFF2
FFF0
FFEF
000D
FFE6
0011
FFE4
000B
0014
0000
FFFF
FFF4
0000
FFF8
FFE1
0004
FFF2
FFED
0007
0019
0001
0005
000C
FFF2
FFFD
FFFA
0009
FFF1
0005
0001
FFF4
FFFC
FFEE
FFF7
FFF5
FFF6
FFF8
FFFA
0009
FFFC
FFFA
0003
0000
0006
FFF6
0004
0009
000B
0004
FFD1
000D
FFDE
0006
FFEE
FFFC
FFFF
000F
FFE2
0007
FFF1
FFFD
FFE6
FFF6
000B
000E
0001
FFE6
0003
FFF9
0001
FFE8
FFF6
FFF6
FFFF
FFF5
FFE4
FFF0
000B
0003
FFEB
0020
FFF1
0003
FFF5
0010
FFF8
FFF8
0009
FFE7
FFD2
FFFD
0004
0004
0006
FFE1
0002
000D
FFF5
0004
0015
FFEA
FFEC
0009
0011
FFF1
0000
0006
FFFD
001A
FFFA
000A
FFFC
FFED
0003
FFEC
FFFC
FFF5
000C
0001
0000
000B
000C
0008
FFEB
FFEC
000A
FFFA
0002
0010
FFF9
0012
FFFC
000C
0012
FFF6
FFFF
FFF5
0001
FFF4
FFFA
000A
FFF2
0001
FFF9
FFFA
0003
FFEA
FFF7
0017
FFF6
FFFF
0004
0010
FFF7
0011
000F
000B
0007
000A
0007
0003
FFEC
0008
FFEC
0000
001A
0017
FFE7
000A
FFFC
FFF9
000C
FFF7
FFF7
0000
000E
FFFA
FFFD
0018
FFF9
0016
FFE7
FFFC
FFF4
FFE2
0012
0013
0012
FFEF
0013
0002
FFF7
FFFE
001A
FFF8
0008
FFF8
0007
FFEA
0006
001F
FFF0
FFFF
FFDA
0002
000B
000A
FFED
0010
FFF5
FFF6
FFFA
000A
0008
0012
FFFC
000E
000E
0000
0025
0010
0001
0001
FFF7
0002
0000
0005
FFF2
0005
FFF5
FFF1
0004
FFFC
0022
FFE7
FFFE
FFE6
0002
0002
001B
0010
FFF5
000C
FFFC
FFE0
000E
0014
0009
FFF5
FFF8
FFFC
FFF3
FFFF
FFE6
FFF1
002B
0011
0014
000A
FFF6
FFDA
0006
0012
FFFA
000C
FFF6
0003
0003
000F
0009
FFFE
FFED
FFF3
FFF0
FFF4
0020
0008
0003
0011
0001
FFFF
0015
0005
000C
0000
001E
0007
FFF8
0013
000A
0009
0000
FFEF
FFEC
0001
001B
FFFA
0006
0010
0010
FFEE
0018
FFEB
0007
FFFB
000D
0019
001D
FFF6
FFF3
FFF6
FFFE
FFF7
FFFD
FFF6
0006
0006
FFF3
FFF0
FFF9
0019
FFF7
0009
0017
000A
FFF7
FFF5
0016
FFF5
0007
0015
FFE0
0005
000D
000D
FFEC
FFFB
0002
FFFB
FFFF
0001
000A
0006
000B
0009
FFE5
FFF4
000E
0005
0027
000E
FFEC
0011
0004
FFFF
FFDA
FFF4
000B
FFED
FFF1
0006
FFE0
0005
FFF1
0006
0005
0009
FFF2
FFEB
FFFE
0006
0000
FFE6
0010
FFF9
0014
FFF1
FFF1
FFE8
000F
0006
FFF0
0003
0000
0003
FFF5
000E
0014
FFF3
0019
FFEE
000C
0009
FFF9
0004
000B
FFFB
001F
0021
000E
FFF9
FFEB
000F
001C
0002
FFED
0003
FFE9
0005
FFF6
FFF7
0000
FFF8
FFFC
0006
000C
000A
FFF7
FFED
FFFA
FFF0
0002
FFDB
0010
0005
FFFC
FFEF
0002
0017
000D
FFFC
0005
0014
000C
FFFF
0007
0002
FFEF
FFEE
0011
0005
000B
FFF8
0007
FFF4
FFF9
0002
0005
000A
FFE2
000C
FFFD
FFE6
0007
0016
FFF4
FFF4
000F
0004
FFF8
0006
FFFF
000F
FFFB
FFEC
000C
002C
FFF5
FFF5
0004
0005
FFF2
FFF0
FFCF
FFEC
0006
FFFD
0010
0009
FFDA
0007
FFF2
0007
FFEC
0001
0007
FFF5
FFFB
FFFD
0011
0004
0019
0000
0006
FFFC
FFF3
FFE0
FFE9
FFF9
FFEE
FFFF
0000
000C
0008
FFFD
FFEC
FFF8
FFF5
FFFD
FFF4
000A
FFFD
FFF5
FFFA
000A
FFF4
FFF3
FFF1
FFFF
0002
FFF7
FFFF
001B
0007
000E
0007
0004
FFEC
0001
0006
FFFD
000F
FFFB
0001
0014
0001
FFDF
FFF1
000A
FFE5
FFE0
0000
0002
0013
0014
FFF0
FFEE
0000
FFF0
FFF9
FFDD
0019
0000
000C
FFFE
0005
0000
0000
0000
FFF6
001B
FFF4
FFF7
0000
FFF6
0009
000F
000A
0003
FFFF
0019
FFF9
FFF9
0006
0009
FFE8
FFE5
000F
001C
0000
0004
FFE4
FFEE
000D
FFFA
FFFF
000A
FFEE
FFFF
FFFB
0013
FFEF
0006
0010
0006
0013
FFFC
FFED
FFEE
001D
FFF9
FFFF
0005
0004
FFE0
FFEB
000F
0005
0000
002E
000D
FFDC
0015
FFFB
000C
0004
FFFD
FFFF
FFE9
FFFA
FFF3
FFFD
FFFF
000B
FFFC
0008
FFD1
0019
FFEE
0001
FFF9
0004
0008
FFF6
FFFE
0014
0019
0009
0010
0012
FFEF
0008
FFEA
FFEE
FFEF
0026
FFFE
0008
0006
FFD5
0008
0001
FFFA
0004
FFE4
002C
FFFE
0018
000A
FFE7
0010
FFF8
000C
000A
0002
FFFD
FFF7
0010
FFF7
0000
0010
FFF5
0002
FFEB
FFF8
FFDD
0005
000B
000B
000E
FFFE
FFEE
0001
FFFC
FFFC
0007
FFED
FFFD
0008
0007
0018
0003
FFED
FFFE
FFE8
FFDA
000A
FFEE
FFFD
FFFF
FFFF
FFFE
0020
0000
0009
0007
FFF5
FFF3
FFFF
FFE9
FFFC
000E
0008
FFFA
FFF5
0018
0006
FFFB
0019
0009
0016
FFFE
FFF9
FFDC
0009
0018
001D
FFFF
FFF3
0009
FFF0
FFFC
0003
FFF8
0000
000C
FFF9
FFFF
0000
FFF8
FFF0
0010
0006
0002
FFE5
FFF0
0020
0018
FFF9
FFF4
FFF5
FFF8
FFFB
FFE8
FFF6
0005
000C
FFEF
FFFE
0003
000D
0007
FFE7
0014
0007
0007
FFF7
0006
0000
000C
000E
FFF8
0029
000B
0015
FFF0
0005
FFEF
0007
FFEA
FFFD
0001
0000
FFF9
FFFA
0002
0005
FFF7
0002
000D
FFF1
001C
FFF7
FFF4
0011
000A
FFFC
000D
001A
FFF2
FFFB
002D
000F
0007
FFFD
0006
FFF5
FFF2
FFF6
FFF4
001F
FFFB
FFF5
FFF6
000C
FFED
FFE3
000D
0005
0005
0002
FFF5
FFF5
000F
FFF5
FFDF
FFE4
0005
000A
FFF4
FFFC
001A
FFFF
0005
0008
FFFC
FFED
0006
FFEF
001B
FFF8
FFFD
0005
FFE6
FFF7
FFF0
0016
FFF9
0009
0001
0007
0001
0006
FFFA
FFFE
FFF6
0006
FFE6
FFF9
FFFA
0014
0021
0001
0017
FFFE
FFF4
FFFB
FFFF
FFE6
0007
0007
FFEE
FFFC
FFE9
000D
FFF3
FFF0
FFF0
FFFD
0018
FFFA
FFF3
0004
0000
FFF5
FFEF
000E
FFF4
000A
FFEC
001C
0019
0011
0006
0007
FFFD
0006
FFF2
FFDE
000E
FFF2
FFE0
0014
0005
0014
0005
FFF5
FFE6
FFF6
FFDC
000F
0010
0010
000A
FFF3
0011
FFFC
FFFB
FFF2
0004
FFEF
0020
0013
FFFC
0010
FFF6
FFE0
0000
0003
000A
0002
FFE5
FFF5
FFFD
FFF2
000E
FFED
0004
FFF1
FFFB
0000
FFFA
FFFA
FFF6
0012
0022
FFF4
FFF6
0014
FFEE
FFF8
FFEC
000B
FFFC
0001
FFEC
0003
FFF1
0008
0002
0004
0010
FFF6
FFFC
FFE4
0007
FFF0
000D
FFF8
FFEE
000A
FFFD
FFFB
FFF7
0005
FFF4
FFEF
0002
000E
FFFA
0020
FFFE
0002
FFFA
0000
0001
FFF6
0002
FFEF
001A
FFFF
FFF1
FFE7
0022
000E
0006
FFE6
FFF9
0018
000D
0008
0001
0002
FFFA
000F
0003
0006
FFF7
000D
FFEB
FFF2
0005
001C
0013
0001
FFF2
0010
0003
0008
FFF9
FFFE
FFFA
FFED
0003
FFF8
FFF0
0003
FFFC
0000
0008
FFF8
FFFD
000A
FFFB
000C
000F
FFFB
0002
0004
0000
001A
0012
0000
FFFB
0011
FFFD
FFDD
FFEA
0018
FFF2
FFF2
0022
0005
FFF7
FFFC
0007
FFF0
000D
000D
0007
FFEF
FFEC
0001
0002
FFE7
FFEF
FFF0
FFF7
FFF2
FFFD
000A
FFDE
FFEC
FFF3
0007
000A
FFF5
FFF0
0013
FFF5
FFFC
FFF6
000E
0013
001E
0014
FFE1
0001
0009
000A
0014
000A
FFF6
FFED
FFF3
000C
0005
0015
FFED
0014
FFF6
FFE3
0003
0013
0015
FFFB
000C
FFE5
FFEE
0010
FFF6
0017
0007
001C
0001
000A
0017
0013
FFF2
0008
FFFE
FFF3
FFF5
FFEB
0010
FFF0
FFF1
FFF8
FFF2
FFEF
FFFF
FFF1
FFFD
000B
FFF6
0003
FFFA
0001
0009
0011
0003
FFFF
FFF8
FFFC
0009
0001
FFDE
0014
FFFB
0023
FFFD
FFE5
FFF6
FFE5
0010
0011
FFEE
FFEB
0013
FFF1
000E
0009
FFFF
FFFF
0002
0008
0011
0000
FFF7
0010
FFFC
FFFB
0003
0007
FFEC
FFFA
0015
000D
0006
FFF0
FFF2
0002
FFF8
0009
000C
0002
FFFD
FFF7
FFF0
FFE8
FFFC
0006
FFFF
001A
FFF8
FFF9
FFE8
FFF8
FFF2
0001
FFF7
000B
FFE2
FFEE
0007
000E
0014
FFFB
0006
FFD5
0007
FFEF
0011
FFF8
0001
FFEE
0004
FFF5
000D
000B
0000
FFF3
0002
0004
FFF3
0004
FFF9
0003
FFF2
FFE9
FFF5
000D
000A
FFF9
0027
FFEE
FFFA
FFF5
0015
FFE6
0001
FFFB
001A
0009
FFE8
0008
0008
FFE8
FFF1
0010
0017
0009
FFF9
FFF3
0011
FFFE
FFF0
FFFE
FFF0
0007
FFDD
FFF8
FFEC
FFE7
0007
0019
FFF4
0003
0008
FFE1
FFFE
FFDA
FFF4
FFF3
FFEE
FFEC
FFF1
FFF4
0007
FFF3
000C
000D
0002
0001
0015
000D
FFE1
FFFD
0009
0001
FFFB
FFFF
0008
0001
0009
0001
FFE6
0004
0000
0022
FFF0
0013
FFF5
0017
FFFF
0005
0010
FFFC
0009
0004
0005
0007
000D
FFEC
FFFB
0009
0002
FFF9
0001
000D
FFF4
0005
FFF0
000F
FFF5
FFF5
0014
0003
FFEF
0003
0018
0019
0010
000D
0005
FFF8
0001
FFED
FFFD
001D
FFF5
FFF2
0000
FFF3
FFE8
0009
001E
FFF1
FFFC
0001
FFE9
FFFC
FFF2
FFDB
001E
0014
0016
0002
0021
FFFC
FFE7
FFEB
001B
FFFC
0002
0003
FFFE
001F
000A
0013
0017
000D
FFE3
0014
FFF0
FFFD
0003
FFED
0007
FFFC
FFF9
0006
0003
FFF7
0020
FFFC
0015
0004
000B
0010
FFEF
0005
0015
0005
FFFD
FFF6
0010
0011
FFFC
FFF3
FFF5
0009
FFFA
0014
FFFE
FFF5
FFFF
0015
FFFE
FFFE
FFE7
0004
000C
FFF4
000B
000E
FFF5
0012
0000
0009
FFEB
0008
FFFD
0011
0002
FFFF
0002
000A
0009
FFF7
0009
FFE7
FFF9
FFF0
FFE1
000D
0000
0016
0005
FFFD
000B
FFF7
002D
FFFE
0014
0018
FFFD
0004
0002
0008
FFF4
0007
0009
0004
FFED
0002
0007
0005
0004
FFF1
FFFB
FFED
0005
0013
FFEE
FFF2
FFFA
FFF3
0006
FFF3
0005
0007
0003
FFFE
0002
FFF8
FFF6
FFF4
0006
000B
FFF1
0008
0008
FFF3
FFF7
000C
0001
000A
FFF1
0001
0009
FFED
0002
000E
FFE4
0001
FFF3
0013
0009
FFF6
FFF0
000D
FFFC
0007
0008
FFF7
FFFC
000B
002D
0009
FFFB
FFF2
FFFC
FFE9
FFE8
FFF6
001E
000D
FFE8
0000
0002
FFEE
FFE9
FFE1
FFCF
FFE2
0006
FFE1
000A
0019
0000
FFE8
0011
0003
FFFE
FFF9
FFFB
FFF6
0018
0010
FFF7
FFEF
FFF0
FFE5
0001
0006
FFEB
0007
000F
0025
FFE5
0003
0005
FFE7
FFF7
0010
FFEF
FFFF
FFFC
FFFF
0011
FFFB
0015
FFF1
FFF6
FFFF
FFED
FFF8
FFF3
000E
FFEB
FFF6
FFFB
FFFC
FFF6
000A
0005
000B
FFF5
FFEB
FFFC
000C
FFFA
FFFE
0004
0004
FFF7
FFF8
FFF6
0005
0002
FFFC
FFFE
0005
0006
FFFF
FFF7
0005
0004
0007
FFF4
0011
001D
FFF5
000D
FFDD
001F
FFF8
FFF9
FFFB
0016
FFFD
FFFD
000D
FFF6
0017
FFFC
FFF2
FFFE
000B
000F
FFFC
FFF9
0004
0009
0005
0001
FFF2
000C
0006
0001
000E
FFEF
FFF7
FFFC
FFE5
FFF6
0000
FFF4
FFFB
0009
FFE7
000D
FFFC
001C
FFF9
0002
FFEE
FFFC
001C
FFFA
FFFC
FFFB
FFF9
FFE3
FFF6
FFED
FFE7
0000
0003
FFFD
FFF5
0003
0007
FFF1
0017
0014
0010
FFF0
001D
FFE8
FFE5
0001
0011
FFF2
FFFC
FFF2
FFF7
FFED
FFFE
FFFF
0013
FFF7
FFEC
FFED
0018
0003
FFF6
FFEA
0009
FFF1
FFF9
FFFB
FFFD
FFFC
0005
FFEE
FFF9
FFFA
FFF7
FFF3
FFF9
0004
0008
FFFE
0007
FFF7
FFFC
FFF2
FFFF
FFF6
FFFE
FFF3
FFFD
FFF7
FFF2
0001
FFF3
FFFB
0008
0015
FFF0
0010
0007
FFF8
FFFE
000E
0000
0010
FFFA
001E
000A
FFF9
0000
FFEB
000E
FFEE
000B
FFED
0006
0022
FFFA
0007
FFF9
0004
0007
0014
FFEE
FFF2
FFF6
0009
FFFF
FFFC
FFF1
0010
FFF5
FFF4
0032
FFF7
001D
0018
0004
FFFA
FFF4
0005
001D
0002
0002
FFF5
0025
000A
FFFA
0008
002D
0012
FFF9
0017
FFFF
FFED
0007
FFFB
0001
FFFD
FFF8
FFF8
FFF6
0004
0005
0026
0016
0009
0014
FFF1
0012
FFE2
0003
FFF9
FFFA
000F
0019
0009
FFFF
0027
0008
FFEC
000A
FFEF
0006
FFF9
0002
0002
FFEB
0008
0007
FFF2
FFF6
FFFC
FFEB
FFF4
FFE1
0010
FFEC
0011
0008
FFF2
0017
0017
FFEA
0001
FFF1
0008
FFEF
0017
000F
FFF4
FFDE
0002
FFF2
0023
FFFF
000F
FFEB
0012
000B
0006
FFF8
0020
FFF1
0012
001B
FFFE
FFFA
FFF8
FFEC
FFFD
FFE1
FFF0
000C
FFE3
0000
0008
0014
FFFF
0004
0012
0004
FFF5
FFFE
FFFE
FFFE
0001
0003
000F
0015
000A
FFEA
FFE4
0015
FFFD
FFEB
0007
FFFC
0007
0006
0001
FFF3
0009
FFFE
FFF0
FFFB
0002
0005
FFE7
0003
0004
0005
FFFD
FFF3
0000
0006
FFDF
0009
FFFA
0000
FFE7
0009
FFF4
0013
0014
FFFD
0012
FFFB
000E
FFCD
0000
FFE3
000B
FFFC
000E
0000
0000
FFFE
FFEC
FFF9
0017
FFF8
0002
FFF6
0002
000E
0002
FFE8
FFE4
FFEE
FFF5
FFF2
FFFA
FFE4
FFFA
0004
0006
000E
FFED
0003
0001
FFEF
FFFF
FFF9
FFF6
FFF2
FFF1
FFEE
0013
FFFD
000F
0003
0011
FFF0
FFF3
0004
FFE6
000E
FFF5
000C
000D
000D
000C
000A
FFFB
FFE0
FFF6
FFEB
FFF8
000D
FFFE
0001
0011
0011
FFE8
FFE6
0004
0002
FFFE
0006
000A
FFFC
0005
FFEC
0001
0006
FFF4
0006
FFFC
000A
0001
FFFE
0008
0008
FFEC
0002
0001
0007
FFF7
000F
0001
0004
FFFB
0012
0006
0010
0009
FFFD
FFDF
FFFD
0005
0003
0008
FFFE
FFFD
0015
FFFD
FFF9
000C
FFFE
000C
0001
0008
001A
0004
FFF7
FFFA
0004
0002
0003
000F
001C
FFF8
FFFD
FFEC
0002
000F
0007
0000
0008
000F
FFE9
0016
000B
FFF8
000B
001A
FFEE
0014
002D
FFFF
0003
000C
FFF8
000A
FFF4
0024
0002
000A
FFE2
FFFD
001B
FFED
FFF3
0008
0008
0019
FFF5
0007
FFFF
FFF5
FFF3
0000
FFF1
000D
FFEA
FFFC
0007
FFDC
0001
FFF5
FFF5
000D
0019
FFFD
FFFF
FFE2
FFFB
FFF7
FFF1
0002
0006
FFEF
FFF3
0005
0000
FFFC
0005
001B
0007
0023
FFFF
000C
000F
FFED
0000
0000
FFDE
FFE3
FFF4
0003
FFEC
FFEA
FFF6
FFE9
000A
000B
000A
0027
FFEE
FFEE
0003
0006
FFF9
FFF8
FFFE
0008
0013
0000
FFFB
000B
FFFE
0008
000B
0010
FFF8
FFF6
FFFB
0005
0004
FFF7
FFFD
FFF5
FFE8
0003
FFFF
0007
002A
FFF5
FFFF
0001
0009
FFF2
0010
0010
FFED
0014
FFFA
FFF1
0010
0019
0002
0011
FFFA
0003
FFFE
0004
FFF7
0000
FFF6
FFE5
FFF7
FFF5
0010
000F
FFF1
000D
FFFC
FFFC
FFF2
FFF4
FFEC
0009
000B
0012
FFF1
FFF7
0013
FFF5
FFFA
FFFD
000F
FFF7
FFEE
FFFB
FFFD
000E
0013
FFDB
0000
0008
FFED
FFF3
FFE9
FFF9
0006
FFF3
FFFC
FFFA
0000
FFE8
0008
0000
FFFA
FFF9
FFF3
0000
FFFC
FFF9
FFE9
0016
000D
000A
0009
0002
FFF7
0014
0004
FFF9
FFFE
0009
0003
FFFB
FFFF
FFFB
0018
FFFF
0006
0015
0006
0003
FFEF
0004
0007
FFFB
0012
000F
FFF0
FFF3
FFF9
FFF8
FFF5
000B
0011
FFE1
FFFA
0005
0006
0023
0012
FFED
0004
0016
FFEB
0019
FFF9
0000
FFF5
FFFA
FFDE
FFFE
FFDB
FFE6
0009
0008
FFFD
0008
FFE2
0015
0011
0014
001A
FFDB
FFFA
FFFE
FFEF
FFFF
FFFC
000B
FFF4
FFEF
001C
0004
0006
FFF2
FFFC
001E
002E
FFF9
0000
0008
FFE9
FFFE
FFE9
0002
FFF4
FFEA
0016
0004
0007
0025
0011
FFE4
0018
FFEC
FFF1
FFF0
0026
FFF2
FFEB
FFE7
0013
000E
0014
0011
0008
0004
0007
FFF6
000D
FFEA
0000
0002
0001
FFD9
0007
0011
0016
FFF4
001C
FFFE
FFF3
FFE0
0004
FFEB
FFF5
FFFA
FFD5
FFF9
FFF4
001C
FFF8
FFF2
FFD6
FFFA
0019
0014
FFFF
000F
0005
0006
FFE8
001E
0003
FFFA
0002
0005
FFE4
000A
0003
001C
FFE3
FFF0
FFF6
0015
FFF1
0007
FFE2
0011
000C
FFFE
FFF2
FFF9
FFFB
FFFB
FFFE
FFFB
FFFC
0007
0001
FFE7
0013
FFF6
0003
FFF0
0022
FFFE
001E
000A
FFF7
FFF4
0002
FFE3
0005
FFE8
FFF4
0004
0007
0010
0003
0017
001C
FFFC
FFFC
002B
FFF8
FFFC
FFF1
FFDC
0001
0002
0014
FFF6
FFF3
0013
FFF4
FFFE
FFF5
FFF2
FFF4
0006
FFF5
0000
0010
FFF3
FFF4
FFFB
FFF8
000A
0011
0002
0004
0007
000D
FFE2
0008
0013
FFF2
FFE8
FFEF
0007
FFFA
0002
0014
FFFC
FFFE
FFE5
FFFE
FFF4
0005
FFF1
001B
0008
0008
FFDF
0007
FFEF
FFEC
FFEC
000A
FFF1
FFFD
FFFE
000B
000E
FFEF
FFEB
FFFB
0013
0004
FFFB
0001
0002
FFFE
FFF9
000F
FFEB
0002
FFFA
FFF6
FFF7
FFF4
0015
0010
FFFA
000A
FFF1
FFEA
000F
0014
FFFE
FFFE
0010
FFFA
0027
FFEC
0011
FFFA
FFED
0011
FFF4
FFFF
0007
0003
0002
0002
FFFA
0013
FFF4
FFFD
FFF1
FFF8
FFFB
FFF0
000C
0013
FFEA
FFFC
0017
0008
FFF6
0008
FFEB
FFF0
FFF6
FFFD
0006
0008
FFF6
FFEE
FFF9
FFD3
FFF7
0008
FFFC
0008
0017
000E
FFF9
FFEE
001D
0003
000A
FFEF
0012
FFEF
FFFF
FFEE
FFF3
0007
FFFE
FFEE
000A
0008
0014
FFFE
001C
FFF4
FFF5
FFFE
0006
0004
0007
FFFF
0022
0007
0019
FFFC
FFEC
FFF2
001E
FFF1
0004
FFEF
FFE7
FFF9
FFFF
FFFF
FFF9
FFEC
FFF5
0011
0014
000B
0023
0009
FFF6
FFDC
FFF9
FFF6
0016
FFEF
000C
FFED
FFFD
FFEA
FFF1
FFE4
FFEA
000E
0011
FFED
FFF2
0003
FFF9
0008
000B
000F
0003
0014
FFF2
FFF5
FFF8
000B
0007
FFFC
0008
000C
000A
0013
0022
0011
0016
0005
FFEB
FFED
FFFC
0001
0002
000E
0024
FFFC
000B
0002
FFEC
FFFA
000B
0009
FFE3
0001
0009
0003
0001
FFE6
0005
000A
000C
0007
0007
FFF1
001C
FFF4
FFFA
FFFF
0023
000D
0008
FFF6
FFFE
000F
FFF6
0005
FFFA
FFE7
FFEE
0005
FFF9
FFFC
FFED
0009
FFF8
000F
FFE7
0018
000A
000A
FFFC
FFFB
FFE4
0005
0010
000D
000C
FFFF
FFF4
000D
FFE7
FFFB
000E
FFED
001B
FFF8
000C
FFF0
0008
FFF8
0000
0004
0002
FFE3
FFEF
000F
FFFB
0011
0007
0011
0008
FFEE
000B
0000
0027
FFFC
0007
0004
0017
FFFE
FFFF
000D
FFF4
0004
FFFB
0001
FFFA
FFE1
0013
0004
000C
0004
FFE8
0026
0008
0004
0008
FFEB
FFFC
000D
0000
0027
0012
0019
0025
FFF6
0008
FFF5
FFF4
0002
0006
000C
0012
0003
000E
001A
FFF3
0008
FFF3
FFFD
001D
FFE7
FFF7
0006
FFED
FFF0
FFDF
000D
FFF9
0009
FFFE
0005
000B
FFEE
0018
FFF9
0002
0015
FFF7
0016
FFF9
0022
000F
001C
0017
0003
FFF1
FFF2
0004
001C
0009
FFF0
000B
000E
FFE8
FFF0
000B
FFF9
0017
FFF5
FFF1
FFF8
0008
0001
FFF2
FFEF
000F
FFFF
000E
000F
FFF6
FFF3
0004
001B
FFE4
001E
FFF0
FFFF
FFFE
FFF7
FFF1
FFF4
FFDE
FFF7
0013
0035
0007
FFDE
FFEF
0002
FFED
0004
000A
FFEA
FFFE
0000
0011
0009
FFF9
FFCE
0007
0002
0007
FFFF
0002
0006
0002
0002
0004
0009
FFFB
FFFF
FFFC
FFEF
000A
FFF7
FFF6
000A
FFDA
001B
002A
000F
FFFA
FFBD
0010
001E
FFF4
0008
0003
FFE8
FFEC
0012
FFFC
0000
FFEE
FFFF
FFF0
000E
FFE5
0003
FFFC
0006
0006
0006
001B
FFFA
0006
0008
FFF0
000C
FFF8
000B
FFEE
FFF9
FFDB
0006
001D
0001
0007
0008
FFF4
FFFF
FFF8
0003
FFFE
FFF1
0022
0022
FFEF
FFF6
0010
0000
0003
FFDA
000B
FFF8
FFDE
0007
0006
000E
0005
000D
FFF5
FFFE
FFFE
FFF7
0006
FFF4
0006
0017
0009
0006
0010
FFE9
FFFE
0023
000C
0000
0013
0005
0006
0004
FFF0
0013
FFEC
FFF5
0003
0003
001E
FFE5
0006
FFFB
FFF9
FFEC
FFF5
FFFC
FFF9
0010
0005
001A
FFF5
FFFF
FFFA
0011
0015
0006
FFDF
0004
000A
FFFC
FFDE
FFFD
000D
FFF9
0002
000E
FFFB
0010
0007
0014
FFF6
000B
FFF4
FFF4
FFE0
0008
0002
FFFC
FFF2
FFF2
FFFB
FFFE
0002
0004
0003
000F
0001
FFF6
FFE9
0006
FFEB
FFFC
FFF3
0014
FFFE
FFF6
FFFA
0002
0005
0009
001A
0001
FFDF
0007
0012
0009
001A
0018
FFF1
FFE3
FFF9
0001
FFF4
FFE3
FFF5
FFE8
0013
FFF7
FFE6
001C
FFE1
0009
FFF4
0012
000F
0019
FFEA
FFEB
FFF7
FFE9
FFFF
0002
FFFF
FFF8
FFDE
0008
FFF0
FFF0
000F
FFFE
000E
0009
FFFA
000E
FFF5
000D
0011
FFE8
FFFE
0011
FFF3
FFF7
FFFF
FFFB
0003
0012
FFEC
000C
0015
FFFD
FFFD
0012
0007
001F
0001
0004
0006
FFF8
0015
FFF9
FFED
0009
FFF4
FFE7
FFFE
FFF5
0022
0003
FFF7
FFEB
000E
FFEB
0021
FFE9
0005
0000
000F
0009
0003
FFEE
0007
0014
FFF2
0007
FFFE
FFFD
0008
0006
0013
FFFA
0017
0000
FFFE
FFFB
001B
0005
FFDC
FFFA
FFF8
FFF1
FFE2
FFDF
FFED
0014
FFED
0006
FFDE
000B
0004
FFF4
FFE0
FFF9
000E
0007
000B
001A
0012
0021
FFFD
FFFF
0001
FFF8
0005
0010
0008
FFFA
FFF2
FFF6
0017
0020
FFF7
FFE1
FFF9
0018
0000
0015
FFF1
0026
FFF2
000C
FFE2
000D
000D
FFF6
FFFF
FFF1
FFFD
FFFF
0007
000C
FFE7
FFF3
0004
0013
FFE6
FFE3
0009
FFF8
000A
FFEE
FFEE
0007
000C
FFF1
FFED
0004
000D
0008
FFF5
0008
FFF5
FFFD
FFEC
000C
FFEA
FFFD
0000
0003
FFFB
0000
FFF5
0009
FFF3
000D
001A
FFEE
0016
0008
FFE4
0007
0001
0002
0001
000A
FFF5
FFFC
0004
000A
FFF5
FFFF
FFFF
0003
0001
FFF1
001B
FFF6
FFDF
0009
000F
0002
000A
FFF4
0010
0005
FFFB
FFF4
0003
0002
FFFA
0026
FFEC
FFF8
FFFA
FFFD
000F
FFFA
0015
FFF1
FFF0
FFF7
0006
FFF4
0007
0008
FFFD
002E
000D
000A
FFF4
FFE5
FFFC
0000
FFF4
0001
FFF2
FFF1
FFF3
FFF2
0010
0003
FFFC
FFFB
0004
FFF3
0006
000C
0006
0012
0018
000E
0002
0005
FFFC
0002
0000
0009
FFF6
FFF9
FFFE
FFF1
0009
000B
FFF0
0005
FFF7
FFF4
0001
0017
000D
0006
0019
0018
0007
0017
0000
FFFF
FFFC
FFFC
0008
0002
0000
0006
FFFE
0019
0001
FFEF
FFF0
FFF9
FFFA
FFF3
FFF6
FFE2
FFFA
FFFA
0003
0011
0015
FFF8
0003
FFE6
FFF9
FFE2
0001
FFFB
FFFB
FFEC
FFEB
0004
000A
0006
0003
0012
FFEC
0012
0014
FFF8
0015
0007
000E
001B
FFE9
0001
0013
FFF6
000D
0000
0002
FFF5
FFEB
FFEC
FFF3
FFF7
FFFA
001E
000E
FFFE
000D
FFEA
FFF9
0004
FFF6
FFE7
0011
0002
FFF9
0002
0003
FFF8
0010
FFFA
0006
0018
000F
FFEE
0003
0009
FFE9
0001
FFEE
FFF6
000E
FFFB
FFF6
FFF4
0008
000D
000A
FFF4
0007
FFFC
FFFF
FFF7
FFFD
001D
FFE7
0008
000A
FFFC
0005
FFFF
FFF1
0008
FFDF
FFF7
FFF8
FFF6
FFFA
001B
0015
FFFD
0008
001D
FFFC
0005
0013
FFEE
0011
FFFC
FFFD
0011
0004
0009
0020
0002
FFF3
0004
FFF1
001B
FFF5
001C
FFF3
FFE8
FFE6
0008
FFF3
0012
0001
FFF5
0009
FFFA
0008
0010
0006
FFEF
FFE5
0013
FFE9
FFFC
FFF7
FFFD
0003
FFEB
0002
0023
0019
0010
0005
000B
FFF2
FFF6
FFEF
FFF5
0016
0009
FFF1
0007
0004
000C
0010
0000
0014
FFE0
000E
FFF4
FFE1
FFF0
FFED
FFF1
000A
0014
0004
FFEF
FFFC
FFFC
FFFB
0007
000D
FFF2
FFFC
FFE7
FFF3
0013
000F
0001
0001
FFFC
0000
FFE5
0000
0003
0003
0000
0019
FFF3
0014
000D
FFFB
001F
FFEB
0007
FFFE
0005
0004
000B
000A
0008
001B
FFF8
0009
001D
0027
FFFF
FFEF
FFEE
000A
0002
FFF8
0015
0008
0002
0019
0002
0002
000F
FFEB
FFF8
000A
0004
0009
FFED
FFF4
000C
0015
FFF2
FFF3
FFF9
0009
FFEF
0011
FFFD
FFF8
0007
0007
FFF3
FFED
FFF2
0012
FFF0
FFDF
FFE2
FFF2
0015
FFEE
001E
000E
0011
FFE5
0006
FFF1
0022
0001
FFFB
0000
FFEE
001E
001C
FFFF
000D
000A
FFF4
0005
0018
0001
000F
FFF2
FFF2
0015
0005
FFFA
0001
FFF6
FFFD
0013
FFEA
FFFE
0004
FFDA
0004
FFED
000E
0027
0001
0010
0007
FFE2
0000
000C
FFFE
0007
0001
0007
0005
FFF8
000D
FFFE
0019
FFF6
0006
FFE6
0012
FFF7
0001
FFF9
0005
0005
FFFA
FFF6
FFFE
000F
0009
000E
000B
0010
000F
FFEA
FFE8
0009
FFF1
0012
FFEE
FFF3
FFFB
FFFE
FFEA
0006
000E
FFF5
FFF9
000A
FFF2
FFEF
0006
000C
0023
FFF6
FFFB
FFF3
FFEE
000F
000A
000A
0003
FFFA
000F
0007
FFF7
FFFF
000C
FFF6
FFF4
0008
000F
FFF7
001C
0005
FFFD
FFFF
0012
FFFA
0004
0012
FFF3
FFF6
0004
0005
FFFF
FFF5
0000
FFF9
0017
0009
0004
FFE5
FFF9
001A
FFF7
FFF7
001E
0022
000E
0004
0011
0022
FFFD
0011
FFE5
FFF9
FFFF
0006
0007
FFF4
0007
FFE9
000D
FFF3
000D
001A
FFED
0009
FFFA
0003
FFF6
0003
FFF3
0017
0018
0008
000B
FFEE
0007
FFE5
FFF4
001C
FFF9
0005
0008
FFEA
FFF0
000E
001D
FFFB
FFF9
FFFE
0004
FFDF
0007
FFF0
FFF0
001A
0002
0000
000C
FFF8
0009
0001
0020
0016
FFF4
0002
000E
FFEF
FFE9
FFEB
0012
000D
FFFC
0002
FFF2
0003
FFF3
FFF7
FFED
0003
FFED
000F
000A
001A
FFEF
FFF4
0008
0017
0009
FFFF
0000
FFF7
FFE2
000A
FFFD
0005
FFFD
0014
001D
000E
000F
FFFF
0006
FFF7
0009
0004
0013
0000
FFFF
000A
FFFF
FFEB
FFF4
FFEF
FFF1
0019
FFEC
0003
001A
FFFE
FFF7
000D
0008
0012
000E
FFE7
FFF6
000C
FFF3
FFF6
FFFB
FFFF
0007
0014
0012
0004
0008
0009
0024
FFFF
FFFD
000B
0003
FFFF
FFF7
FFE3
0000
FFEE
FFF7
FFEB
0000
FFE0
0000
FFEE
0000
FFED
0008
0000
FFF3
FFF8
0006
FFF0
0003
0013
0009
0013
0015
0003
FFFA
0002
FFF9
000C
FFFE
FFEE
0027
FFF3
FFF1
001D
0009
FFFC
000D
FFFE
FFF6
000C
000E
FFF6
FFF7
000C
FFEE
0009
FFE0
000E
FFF0
FFFD
FFFC
0005
FFFB
000C
0001
FFFE
FFEA
000B
0002
0002
FFF9
FFF7
FFF9
001F
0004
FFF8
0003
0004
0020
FFDB
0012
000C
0007
0000
FFF6
FFE6
000E
FFE6
FFF9
0017
000A
0015
0014
0002
0006
000B
001B
0001
FFEC
FFFE
FFEA
000B
0013
FFD7
FFF1
FFF0
0005
0007
FFE9
001B
FFFE
FFF8
FFEE
FFE5
FFEB
0021
0006
0014
0014
FFF9
FFF6
000D
FFF8
000A
000C
0006
0008
FFE8
FFF5
0011
FFF4
0011
FFFB
001E
0004
0008
FFEC
FFF6
000B
FFEE
FFEA
FFF2
0011
FFFE
FFEF
FFF3
FFEE
FFFE
FFF9
FFFE
FFF6
FFEE
FFF2
0019
FFF4
FFE8
FFF5
000E
0015
FFFC
FFF7
0000
0005
FFFB
FFF0
0003
FFEE
0010
0010
FFF9
FFFF
FFE8
FFFB
FFF8
0004
FFD9
FFEA
000E
FFF9
001A
0012
0006
FFF7
FFEB
0007
FFF1
FFE4
FFF5
FFEE
FFFE
000F
FFED
FFF3
0020
FFF1
000C
000E
001F
000A
0003
0007
FFE9
FFF6
000D
000F
FFFB
0006
0003
FFF6
0002
FFEB
FFF7
FFFA
FFEF
FFF2
FFFF
0010
FFFD
0013
FFF5
FFF2
FFE1
0003
000D
0010
FFFF
0012
0001
FFFB
000A
002A
FFF8
FFEB
0011
FFFE
FFEB
000C
0013
0005
FFF3
000C
0018
0001
FFEB
FFE2
0030
0011
FFEE
000C
000D
FFF7
0018
FFF8
0003
000F
000D
001F
000A
FFF7
FFE5
0004
0001
0011
FFF3
0008
FFFB
0015
0010
000A
FFF3
0001
FFEB
000D
FFFE
0004
0005
0006
FFFC
FFFC
0009
000F
FFE4
FFF5
FFEC
FFFD
0001
0006
0006
0003
FFFC
0006
0012
000C
FFF8
000E
FFFF
000E
FFF3
FFFF
FFFC
FFFA
000D
FFFB
000C
FFF3
000A
0007
000B
FFD9
FFFB
0005
FFF5
FFF0
FFF2
FFFC
FFFA
FFF5
0004
FFF7
FFE5
FFF3
001A
FFF1
FFF4
FFF0
000C
0017
FFF6
0001
0033
FFFA
FFF1
FFF5
0005
FFEC
000C
FFFE
FFF8
0003
FFE8
FFEF
0000
FFEA
000F
FFE3
000D
FFF7
000E
FFEA
FFF0
0013
FFF7
0016
FFFE
0015
FFEC
FFFF
0018
FFF1
0006
000A
FFEA
FFF4
FFF9
0004
FFF7
FFF3
FFFB
000B
FFF7
0000
FFF3
0006
0006
0012
0009
000F
001B
FFFC
FFF6
0017
FFE4
FFC5
0000
FFED
FFF6
0005
0000
FFFF
FFDC
FFED
0010
0003
FFEE
FFF8
FFEC
0011
FFFA
FFFC
0011
FFEE
FFD4
0007
FFF9
0022
0000
0014
FFF2
000D
FFE7
0025
0003
FFE9
0002
FFFD
FFFF
FFF4
0014
0007
FFFA
0013
0006
0002
0010
0012
FFF1
0007
FFEB
FFF6
000E
FFFB
0004
FFFD
FFF6
000D
FFF1
0008
FFE4
FFE9
FFFB
FFE7
0001
000A
0010
FFEF
0005
FFE6
0007
FFFC
001E
0009
0001
0012
000F
FFFE
FFFA
FFFB
000D
FFE9
0012
FFFA
0012
FFFD
FFEB
0007
FFF2
0005
0000
FFD9
000F
FFF7
0001
0006
FFFE
000A
FFF6
FFFC
FFEF
FFFD
0011
0011
FFE6
0008
0017
0014
0005
0011
000C
FFF6
FFF9
FFFA
0011
0004
000F
FFF6
0004
000A
FFE8
FFFF
FFED
FFED
FFF1
0008
FFFA
FFF5
FFFD
FFF3
0014
FFF3
FFFC
0002
FFFF
FFE5
FFFF
FFFC
FFF3
FFF8
0012
FFF1
FFFE
FFEB
FFF7
FFF9
FFF7
000D
FFF8
0001
0006
000A
FFFF
FFEA
FFF7
000C
FFF2
FFEA
0001
0008
FFEB
FFFF
0003
FFF4
FFF7
FFED
0009
FFEB
FFF7
FFF2
FFDD
FFF7
0012
0007
FFFC
FFF6
FFEE
FFE4
FFF6
0005
FFFD
FFF3
FFF1
FFFA
FFFE
0000
FFE8
FFF4
FFF5
FFFB
FFDF
FFEE
0010
000C
FFEE
0006
0009
FFF0
0000
0002
0001
FFFC
FFFB
FFFE
0014
FFF4
FFFE
0017
0001
001D
000C
FFF0
0003
000B
FFF3
000C
0006
0007
FFDB
000B
0002
0004
0012
0005
000B
0016
0002
FFF2
0015
0018
FFE7
FFEB
0008
FFEB
0010
0003
FFF4
FFFF
FFFD
FFFE
FFFB
FFFF
FFE0
000C
0001
FFFE
0014
000B
FFF9
FFEB
FFFC
FFE6
FFFF
FFED
FFFA
FFF7
FFFB
FFD9
FFFA
FFE7
0008
0011
0002
FFFE
FFFB
FFEE
0019
0002
FFFD
0003
FFE1
0010
FFF6
FFFF
0013
FFFB
FFF2
0013
FFF0
FFED
FFFD
0009
FFF9
0006
FFE6
FFF5
0006
FFFA
FFF3
FFFA
FFFD
FFE2
FFFC
0019
FFF8
0000
0001
0014
0006
0000
000F
FFEE
000A
FFF4
0004
000C
0009
0006
FFF6
FFF2
FFFF
FFFE
0000
0005
FFF1
000A
FFF4
FFFB
0018
0010
0000
0008
0001
FFFE
FFFF
FFF5
0002
0027
0013
FFF0
0008
FFF5
FFF8
0010
FFF4
0000
0006
FFE5
FFFA
FFFA
FFFE
FFF3
FFFB
0017
FFFD
FFF1
0012
FFDC
FFF7
FFFC
FFFF
0016
FFF2
FFF2
000B
0013
000C
FFE0
FFED
0003
0008
FFFB
0001
FFF2
FFFC
FFFE
0006
0000
0004
FFFD
0014
000E
FFE9
FFFB
0006
0002
FFF8
FFF2
0001
FFDE
FFFD
000E
0009
0003
0014
FFF2
0006
FFEF
000A
FFDD
FFEF
0015
FFF0
FFED
FFEF
FFE6
FFF6
FFF3
0008
0004
0009
0008
FFF8
FFED
FFEA
FFF4
0006
FFE0
FFE9
000C
FFF9
0003
FFFB
FFF3
FFFC
000C
FFF0
000A
0009
FFF5
FFF8
FFFB
FFFD
FFF9
FFFE
FFF1
0008
FFF8
FFFB
FFED
FFFA
000A
001C
FFF6
001B
FFFD
FFFA
FFE8
0004
0006
FFEB
001A
0002
000B
000C
FFF9
000E
0008
0003
FFF3
FFED
000D
FFFE
0004
000A
FFF5
0004
FFFD
0010
FFFB
FFF8
FFEF
FFF1
0005
FFF3
0002
FFFB
0002
0009
FFF7
0012
FFFA
0006
0005
0005
0010
0015
000A
0004
0016
FFFF
FFED
000F
0009
FFFB
FFF5
000D
0003
FFEF
FFFC
FFED
FFFC
FFE6
FFEB
FFFD
FFF6
0003
0016
FFF7
0018
FFFB
0002
0017
FFFD
0016
FFFB
FFF6
0006
FFF9
0023
FFF4
0005
000E
0007
0012
000F
FFFE
FFF8
FFE8
FFFA
FFF2
FFFA
000E
FFF1
0003
000D
0009
FFFA
FFFC
000C
FFEE
FFF5
000A
FFE2
000D
0022
FFFD
FFEC
0004
FFFB
FFF6
0003
0015
0008
000F
000E
000B
FFFB
0012
FFFD
FFEF
FFF8
0004
FFE1
FFFB
FFF6
FFF0
0001
FFF9
000A
0001
FFEC
FFF3
FFDF
0007
FFF9
0001
FFDE
FFF1
FFFD
FFF8
FFF8
FFFD
FFFE
FFFE
0009
FFF8
000B
FFDE
FFFC
0002
0002
FFFC
0000
FFF4
0009
FFFE
FFF6
0019
FFFA
0006
000F
0003
FFED
0002
FFEC
FFF7
000D
FFFC
FFFE
FFF9
FFFD
FFFE
FFFB
FFF4
FFFC
0017
0004
000C
0004
FFF5
0003
FFEC
FFF9
FFF4
000F
0009
000A
000C
001B
FFED
0013
0020
001C
FFF1
FFFE
FFF1
000E
0012
0008
FFF9
000F
0003
FFE8
000E
FFFE
0000
0020
0001
0000
FFF6
FFF7
FFFE
FFFB
0012
0004
FFF6
0007
FFE7
0001
FFE4
0014
FFE0
FFDF
FFE3
FFF5
FFFA
0007
0001
FFEF
0018
0001
0007
0004
FFEF
FFFC
FFF6
FFEB
FFF0
FFFF
001E
000B
FFFF
0004
FFF4
000B
0014
0000
0007
0007
0012
FFFD
000C
FFFF
FFE7
FFFF
0004
0013
FFDF
FFE9
FFFF
FFEC
0000
001A
FFF8
FFF6
FFED
FFFD
FFF5
FFFA
FFEA
FFFA
000E
0000
FFF6
0006
0006
0006
FFF3
FFF3
FFF9
FFFE
FFFA
0009
000B
FFFE
0001
FFFF
0010
FFF8
0013
0001
000D
FFE9
0013
000F
0019
0013
0010
000C
0005
0026
FFF0
FFEC
0006
0010
0002
FFF9
000D
FFFB
0000
FFFD
0006
0016
FFF1
FFF1
0012
001B
FFF5
000B
0009
001B
001B
0013
000E
FFF6
FFEE
0003
0010
001F
0023
0031
0018
FFF1
FFF6
FFE8
FFFA
FFEE
FFFA
FFFB
FFEF
FFFF
000C
FFF8
FFFF
0016
0008
0022
0011
FFE7
FFF7
000B
000A
FFFC
FFFC
FFFE
0009
000F
FFF2
0003
0007
FFF6
0010
FFF7
0012
FFF3
FFFC
0009
FFFF
0000
FFEA
FFFB
FFF9
0005
FFEA
FFFE
FFF6
000A
0014
FFF6
FFF1
FFEE
0019
0013
FFFF
FFF9
000D
FFF2
000B
000B
FFF2
FFF1
FFEF
0001
FFF6
0000
001E
FFF3
FFFD
FFFD
FFEB
FFEC
FFF7
0013
000F
0009
0003
0018
FFE8
FFFE
FFEA
FFF9
0018
0003
0008
FFEF
0018
000D
FFF3
0007
0019
0001
FFE2
0005
000C
FFF5
0001
FFFA
FFF6
0001
0002
000B
FFF4
000F
0007
0004
0009
FFF8
0014
FFFF
FFF4
FFF8
FFE4
FFDC
FFEA
0008
0012
001C
FFFF
FFFB
001E
000A
0000
0019
FFF0
001D
000E
FFEF
FFFB
000C
0000
FFF1
0019
0007
FFF8
FFF5
0000
FFF1
0011
